<unk>	0
<s>	0
</s>	0
.	-2.39292
▁Tom	-3.63152
,	-3.92459
'	-4.01327
?	-4.04558
▁I	-4.10923
s	-4.1284
t	-4.18667
▁to	-4.35432
▁you	-4.51412
▁Ich	-4.53554
▁the	-4.58383
▁a	-4.7587
▁nicht	-4.83592
n	-4.85489
▁in	-4.89972
▁ist	-4.92355
▁is	-5.03918
▁	-5.07194
▁zu	-5.16227
▁Sie	-5.22531
▁was	-5.29276
▁du	-5.30308
e	-5.35993
en	-5.41085
▁das	-5.45905
▁ich	-5.51208
▁of	-5.53637
m	-5.55272
▁that	-5.57863
▁die	-5.60715
▁me	-5.68348
▁hat	-5.74663
▁ein	-5.767
▁es	-5.77056
▁it	-5.79521
▁dass	-5.80628
▁have	-5.82573
▁be	-5.83231
▁Mary	-5.84001
▁for	-5.85591
▁He	-5.8658
d	-5.86803
▁der	-5.87661
!	-5.89499
▁You	-5.89646
▁an	-5.91025
▁Er	-5.91243
▁do	-5.92896
▁The	-5.94685
▁habe	-5.9707
st	-5.98618
▁auf	-6.00756
▁mir	-6.05872
▁mit	-6.06549
▁sich	-6.06751
▁er	-6.07918
▁Das	-6.09049
er	-6.09879
re	-6.1054
▁this	-6.14184
r	-6.15313
▁den	-6.15457
▁he	-6.1555
▁so	-6.16035
▁war	-6.1682
▁mich	-6.17442
▁We	-6.17876
▁your	-6.1886
▁can	-6.22333
▁und	-6.22586
▁eine	-6.23287
▁and	-6.23332
▁his	-6.23493
▁on	-6.23741
▁Es	-6.25018
▁with	-6.25022
▁are	-6.25718
▁my	-6.26168
▁don	-6.26556
▁did	-6.29043
▁Wir	-6.29085
ed	-6.29632
▁like	-6.31018
▁know	-6.32611
▁not	-6.33324
▁Maria	-6.33606
▁want	-6.34082
▁Du	-6.37532
ll	-6.37811
f	-6.40534
▁will	-6.42333
▁It	-6.4333
▁at	-6.49152
▁What	-6.53443
ing	-6.54903
▁kann	-6.55629
▁She	-6.55734
▁von	-6.56062
ve	-6.5626
▁einen	-6.56786
▁ihr	-6.57156
▁aus	-6.57167
▁what	-6.57573
▁dem	-6.58176
▁für	-6.58287
▁has	-6.61179
▁sie	-6.61352
▁sind	-6.61641
▁haben	-6.61744
▁dich	-6.62584
▁Die	-6.64404
▁bin	-6.64671
▁um	-6.66537
▁Do	-6.66881
l	-6.68064
▁sein	-6.68197
▁dir	-6.68234
▁wie	-6.70707
▁als	-6.71118
▁go	-6.72792
▁him	-6.73146
▁Was	-6.73622
▁noch	-6.7376
▁about	-6.74124
▁think	-6.76728
▁nach	-6.77131
▁her	-6.81631
▁This	-6.82246
▁uns	-6.82778
▁here	-6.83916
▁im	-6.84723
▁wird	-6.85946
y	-6.87231
▁hier	-6.88012
▁Der	-6.88053
▁time	-6.88148
▁wir	-6.8852
▁sehr	-6.88695
▁very	-6.89086
▁up	-6.89183
▁had	-6.90024
te	-6.9025
▁etwas	-6.93105
▁am	-6.95062
▁as	-6.96491
▁we	-6.97569
▁out	-6.98133
▁Wie	-6.98402
es	-7.01323
▁all	-7.02748
▁Boston	-7.03597
▁get	-7.05279
▁going	-7.05847
▁weiß	-7.06846
▁vor	-7.07828
▁How	-7.07869
▁That	-7.08302
▁from	-7.09505
▁one	-7.11711
▁man	-7.12011
▁tun	-7.13271
▁meine	-7.13787
▁hast	-7.14442
h	-7.14627
▁good	-7.14663
ly	-7.16335
▁should	-7.1643
▁were	-7.1647
▁would	-7.16511
▁They	-7.1732
▁by	-7.20147
▁mehr	-7.20381
▁My	-7.20456
▁ihn	-7.20666
▁gut	-7.21636
▁über	-7.21905
▁doesn	-7.235
▁schon	-7.23921
▁werde	-7.24321
▁no	-7.24979
▁been	-7.26496
▁Don	-7.27048
▁us	-7.27697
▁keine	-7.28588
▁help	-7.28781
▁gehen	-7.29146
▁could	-7.29711
▁there	-7.30019
▁werden	-7.30644
▁Diese	-7.30756
▁see	-7.31255
▁Why	-7.31725
▁hatte	-7.32272
▁need	-7.34103
▁wurde	-7.34345
▁möchte	-7.34604
▁viel	-7.34786
▁immer	-7.3617
▁just	-7.37201
▁Warum	-7.37558
▁muss	-7.37568
▁said	-7.37852
▁There	-7.39725
▁Zeit	-7.41628
▁than	-7.41893
▁never	-7.42317
▁but	-7.4234
▁nie	-7.44742
▁come	-7.44763
p	-7.45112
▁nur	-7.45652
ä	-7.45779
▁ihm	-7.47045
i	-7.4715
in	-7.47319
▁Are	-7.47812
▁got	-7.47873
▁euch	-7.48768
-	-7.49045
▁bist	-7.49089
▁wenn	-7.49168
▁machen	-7.50224
▁tell	-7.50831
▁bei	-7.50979
▁car	-7.51228
▁more	-7.51521
▁seine	-7.52168
▁zum	-7.52357
w	-7.52881
▁if	-7.53758
ten	-7.54404
▁Ihr	-7.55322
▁ver	-7.55474
▁she	-7.55602
▁how	-7.55663
▁sagen	-7.55787
▁too	-7.55838
▁A	-7.56096
▁home	-7.56442
▁much	-7.56564
▁sagte	-7.57129
▁French	-7.57169
▁when	-7.57676
▁würde	-7.5826
▁take	-7.58346
g	-7.59982
▁hätte	-7.60398
▁nichts	-7.60857
▁now	-7.60859
▁Geld	-7.6197
▁money	-7.62547
▁Did	-7.62711
▁really	-7.63396
▁Wo	-7.64007
▁einem	-7.64212
▁back	-7.64437
▁Has	-7.65135
▁oder	-7.65748
▁ab	-7.66144
▁something	-7.66545
▁work	-7.66645
al	-7.66869
▁Französisch	-7.67283
▁mein	-7.67317
se	-7.67319
▁da	-7.67395
▁heute	-7.6768
▁gerne	-7.679
▁können	-7.68306
▁bitte	-7.7019
▁day	-7.70191
▁make	-7.70493
ung	-7.70531
▁aber	-7.71204
▁lot	-7.71363
▁deine	-7.71508
▁book	-7.71929
▁any	-7.71977
▁Please	-7.72255
ü	-7.72431
▁again	-7.73251
▁anything	-7.73465
▁Hause	-7.73831
▁say	-7.73945
▁kein	-7.73977
▁Can	-7.74201
▁who	-7.74941
▁some	-7.75504
▁told	-7.75505
▁Buch	-7.75573
le	-7.75912
k	-7.75956
o	-7.76051
b	-7.76605
▁right	-7.7704
▁Mein	-7.77489
▁long	-7.78388
▁gerade	-7.79371
u	-7.79497
▁isn	-7.7967
▁des	-7.81238
▁gesagt	-7.81378
▁Arbeit	-7.81799
▁house	-7.82077
▁last	-7.82454
▁people	-7.82457
a	-7.82601
▁Wenn	-7.82883
ge	-7.83189
▁still	-7.83482
or	-7.83787
▁wollte	-7.83818
▁sehen	-7.83908
▁einer	-7.83952
▁room	-7.84616
▁made	-7.84662
▁thought	-7.84763
▁mag	-7.84813
▁alles	-7.84851
sch	-7.84985
▁Where	-7.87216
▁drei	-7.87347
▁school	-7.87522
▁viele	-7.87551
▁over	-7.87626
▁three	-7.8777
▁wo	-7.88294
▁diese	-7.88785
▁way	-7.89331
▁jetzt	-7.89441
c	-7.89665
▁Haus	-7.89689
▁wieder	-7.90333
▁Ihnen	-7.90811
▁only	-7.91033
▁better	-7.91394
▁Let	-7.91429
el	-7.91645
▁went	-7.91678
▁love	-7.91756
▁Auto	-7.91908
▁must	-7.92018
▁talk	-7.92268
▁einmal	-7.93098
▁müssen	-7.93168
▁new	-7.93523
▁speak	-7.93912
▁"	-7.93945
▁always	-7.94083
ur	-7.94514
ig	-7.94615
▁off	-7.94752
▁geht	-7.94934
▁helfen	-7.95451
▁Have	-7.95626
▁lange	-7.95713
▁alle	-7.96053
▁many	-7.961
▁doing	-7.96232
▁dieses	-7.96538
▁where	-7.97003
▁wirklich	-7.97396
▁When	-7.97396
▁gesehen	-7.98542
▁today	-7.98724
▁before	-7.98864
▁mal	-7.99037
▁won	-7.99048
▁asked	-7.99101
▁into	-7.99245
▁ever	-7.99252
▁look	-8.00385
▁Tag	-8.00396
ar	-8.00543
▁Lass	-8.00883
▁seinen	-8.00955
▁well	-8.01207
▁old	-8.01232
▁glaube	-8.01271
▁kommen	-8.01513
▁ge	-8.01541
▁Vater	-8.01579
▁zur	-8.01663
▁besser	-8.01865
▁Be	-8.01869
▁wissen	-8.01938
ter	-8.02216
▁down	-8.0292
▁ob	-8.0302
▁wäre	-8.03044
▁Ist	-8.03732
▁S	-8.04043
▁gibt	-8.0406
be	-8.04343
▁zurück	-8.04744
▁einfach	-8.04875
▁macht	-8.05562
▁Meine	-8.05838
▁Who	-8.0664
▁put	-8.068
▁other	-8.07755
▁give	-8.08079
▁un	-8.0809
ö	-8.08365
▁gemacht	-8.08602
▁eat	-8.08809
▁find	-8.08842
▁or	-8.08898
an	-8.09241
▁Schule	-8.09432
ch	-8.10153
▁they	-8.10374
▁sprechen	-8.10779
▁father	-8.10822
▁morgen	-8.10944
▁dein	-8.10986
▁does	-8.11523
▁konnte	-8.1161
▁happy	-8.12395
ne	-8.12436
▁Ein	-8.12507
▁auch	-8.13241
▁In	-8.13304
▁our	-8.1342
▁name	-8.13512
▁tomorrow	-8.13994
▁sure	-8.14128
▁left	-8.14425
▁wanted	-8.1458
▁Kinder	-8.15811
ck	-8.16339
▁Kann	-8.16389
▁meinen	-8.16657
▁hard	-8.16712
▁years	-8.17051
▁two	-8.17054
▁ging	-8.17406
▁bis	-8.17549
▁Mann	-8.17775
▁Ihre	-8.17784
▁Uhr	-8.17828
▁Wer	-8.17994
▁zwei	-8.18606
▁saw	-8.18838
▁ihre	-8.19167
▁kannst	-8.19459
▁kam	-8.19529
▁getan	-8.19736
▁T	-8.19815
▁doch	-8.19924
▁Zimmer	-8.19973
▁believe	-8.20145
▁leave	-8.20188
▁why	-8.20889
▁sicher	-8.21028
▁„	-8.21121
▁keinen	-8.21383
▁little	-8.21699
▁fast	-8.21705
▁Bitte	-8.21931
▁kommt	-8.21991
▁read	-8.22398
▁after	-8.224
▁took	-8.22588
▁ask	-8.23655
ste	-8.23671
▁every	-8.23819
▁ga	-8.23978
▁live	-8.24091
▁dog	-8.24122
▁understand	-8.24409
on	-8.24432
▁Mutter	-8.24766
▁Hund	-8.25112
▁job	-8.25244
▁waren	-8.25356
▁night	-8.26211
ra	-8.26359
▁Will	-8.26453
▁came	-8.26671
▁next	-8.27309
ic	-8.27582
▁Is	-8.27743
▁ganz	-8.28069
z	-8.28387
▁let	-8.28526
▁Man	-8.28687
▁unter	-8.28814
▁gestern	-8.29293
▁1	-8.29442
▁Wann	-8.30174
ri	-8.30182
▁denke	-8.30929
▁Hab	-8.31504
▁lassen	-8.31606
▁door	-8.31681
▁sollte	-8.31766
lich	-8.3178
▁everything	-8.31958
▁done	-8.32617
▁Leben	-8.32678
▁buy	-8.32848
▁wusste	-8.32992
de	-8.3315
▁No	-8.33246
▁diesem	-8.33473
▁An	-8.33569
it	-8.3377
▁dort	-8.33802
▁first	-8.34037
▁mother	-8.34306
▁play	-8.34526
▁away	-8.3454
▁yesterday	-8.34564
▁stay	-8.34786
▁hin	-8.35023
▁children	-8.3536
▁Japan	-8.35674
▁könnte	-8.36282
▁ganze	-8.36547
▁English	-8.36834
▁wants	-8.37015
▁gehört	-8.37104
▁seinem	-8.37276
▁hope	-8.37383
▁wrong	-8.37511
▁B	-8.37549
▁problem	-8.37705
▁dachte	-8.38208
▁glücklich	-8.38605
▁late	-8.38903
▁without	-8.39039
▁sah	-8.39401
▁dieser	-8.39614
▁essen	-8.39767
▁nothing	-8.39851
▁looking	-8.40101
▁durch	-8.40492
▁please	-8.40545
▁re	-8.40783
▁sagt	-8.40831
us	-8.41566
▁friends	-8.41596
▁sei	-8.42311
▁seiner	-8.42343
▁allein	-8.42588
▁Problem	-8.42614
at	-8.42692
▁used	-8.42771
▁So	-8.42813
▁musst	-8.43134
▁P	-8.43156
▁b	-8.43608
▁their	-8.43619
▁feel	-8.43826
▁happened	-8.4394
▁Da	-8.44061
▁gab	-8.44391
gen	-8.44479
▁call	-8.44514
▁Tür	-8.44705
▁sollen	-8.45068
▁alone	-8.45137
▁Hilfe	-8.45498
▁willst	-8.45765
▁Bis	-8.45863
▁f	-8.45961
▁already	-8.46169
ce	-8.46599
▁lost	-8.46614
▁enough	-8.46615
▁diesen	-8.46649
▁Sch	-8.46719
▁gern	-8.46753
▁wollen	-8.46956
▁life	-8.47063
▁warum	-8.47098
▁heard	-8.47348
▁may	-8.47537
▁mind	-8.48123
▁idea	-8.48268
▁knows	-8.48366
▁davon	-8.48418
▁found	-8.48418
▁Would	-8.4857
▁jeden	-8.49044
▁sieht	-8.49187
▁K	-8.49306
den	-8.4936
as	-8.50262
▁soon	-8.50768
▁lernen	-8.5135
▁Englisch	-8.51498
▁stop	-8.51805
ir	-8.51872
il	-8.52009
▁things	-8.52313
ut	-8.52524
▁thing	-8.52574
ie	-8.52672
▁damit	-8.52929
▁ohne	-8.53233
▁darüber	-8.5356
▁knew	-8.53711
▁E	-8.53956
th	-8.54016
▁remember	-8.54031
▁Freund	-8.5415
▁often	-8.54153
▁schwer	-8.54561
▁wish	-8.54838
▁je	-8.55039
▁meiner	-8.55121
▁wirst	-8.55159
▁selbst	-8.55161
▁Leute	-8.55357
▁passiert	-8.55359
ro	-8.55423
▁Mädchen	-8.55648
▁train	-8.55811
▁Frau	-8.56018
▁week	-8.56157
▁answer	-8.56177
▁paar	-8.56302
▁solltest	-8.5633
▁seit	-8.56689
▁best	-8.56734
ist	-8.57226
▁recht	-8.5759
▁ins	-8.57877
▁sch	-8.58013
▁Mal	-8.58047
▁schnell	-8.58232
▁zusammen	-8.58454
▁scheint	-8.59133
▁2	-8.59183
▁yet	-8.593
▁busy	-8.59724
▁plan	-8.59813
▁keep	-8.59893
▁them	-8.59897
▁kind	-8.59979
▁teacher	-8.60055
▁friend	-8.60167
▁habt	-8.60304
um	-8.60311
▁bought	-8.60324
▁bed	-8.60382
▁each	-8.605
▁question	-8.60593
he	-8.60806
▁morning	-8.60833
kt	-8.61044
ion	-8.61096
▁wahr	-8.61178
▁t	-8.61315
▁Ver	-8.61355
▁married	-8.61522
▁water	-8.61532
▁His	-8.6203
▁hear	-8.6204
ther	-8.62178
▁May	-8.62612
▁looks	-8.62766
▁Woche	-8.62866
▁bad	-8.6287
▁soll	-8.63233
▁wohl	-8.63319
▁Nacht	-8.63748
▁Wasser	-8.63998
▁sollten	-8.64048
▁Könnte	-8.64053
▁seen	-8.64088
▁Jahre	-8.64161
▁himself	-8.64327
▁Frage	-8.64687
▁year	-8.64704
▁able	-8.65065
▁stand	-8.65072
▁cold	-8.65223
▁bleiben	-8.65358
▁V	-8.65766
▁use	-8.66039
▁around	-8.66121
▁anymore	-8.66483
▁letzte	-8.66504
▁deinen	-8.66557
▁geben	-8.66616
cause	-8.67129
▁Fehler	-8.67396
▁true	-8.67421
▁quit	-8.67581
▁Your	-8.67697
▁Stadt	-8.67947
▁same	-8.67949
est	-8.68017
ber	-8.68026
▁tut	-8.68196
."	-8.6925
▁even	-8.6929
▁else	-8.69621
▁these	-8.69944
▁hoffe	-8.69993
▁spielen	-8.70052
▁fertig	-8.70068
▁All	-8.70227
▁Abend	-8.70751
▁anyone	-8.70955
▁reden	-8.71123
▁p	-8.71267
▁gute	-8.71542
▁drink	-8.71674
▁likes	-8.71721
▁great	-8.71895
▁alt	-8.71933
ach	-8.71967
▁looked	-8.72083
▁Jahr	-8.72124
▁brother	-8.72596
▁Could	-8.72665
▁few	-8.73247
ke	-8.73374
▁genug	-8.73441
▁Brief	-8.73447
▁Menschen	-8.73474
▁spät	-8.73606
▁Alle	-8.73663
▁Niemand	-8.73831
▁wait	-8.739
▁gegangen	-8.7394
▁weg	-8.74175
▁Hat	-8.74482
▁Mir	-8.74611
▁afraid	-8.75209
▁Freunde	-8.75254
ul	-8.75272
▁Zug	-8.75311
▁open	-8.75424
▁such	-8.7555
▁gekommen	-8.75571
▁ra	-8.75633
▁big	-8.75647
zu	-8.75954
▁kaufen	-8.76082
▁k	-8.76111
▁coffee	-8.76205
ation	-8.7638
▁tried	-8.76607
ieren	-8.76816
▁Kaffee	-8.77009
▁family	-8.77009
▁matter	-8.7701
▁own	-8.77013
▁nahm	-8.77102
▁says	-8.77281
▁learn	-8.77287
▁gehe	-8.77328
▁seems	-8.77399
▁fahren	-8.77552
▁while	-8.7762
▁jemand	-8.77763
▁yourself	-8.78024
▁girl	-8.78042
ad	-8.78193
▁coming	-8.78327
▁Bruder	-8.78432
▁care	-8.78564
▁beschäftigt	-8.78884
▁Does	-8.79034
▁bus	-8.79189
▁warten	-8.79221
▁Morgen	-8.79254
▁Welt	-8.79284
▁being	-8.79586
is	-8.79643
▁walk	-8.79753
▁try	-8.8016
me	-8.80214
▁Bücher	-8.80285
▁spricht	-8.80292
▁place	-8.80334
▁oft	-8.80335
▁Sin	-8.80375
▁Familie	-8.8071
▁Habe	-8.8078
▁Jahren	-8.80863
▁beim	-8.80878
able	-8.80988
▁beautiful	-8.8113
▁write	-8.8113
▁watch	-8.81221
▁almo	-8.81341
▁letter	-8.81471
▁another	-8.81551
▁boy	-8.8163
▁Bett	-8.81832
▁might	-8.81975
▁wonder	-8.82015
▁c	-8.82073
▁gekauft	-8.82399
▁getting	-8.82464
ver	-8.82513
▁accident	-8.82826
▁hören	-8.83154
▁bekommen	-8.83274
▁books	-8.83816
un	-8.83846
▁Eltern	-8.83902
▁Mach	-8.84212
uch	-8.8433
▁food	-8.84335
lo	-8.84398
▁dazu	-8.84778
▁W	-8.84883
▁days	-8.85038
gel	-8.85816
▁Hand	-8.85875
▁rain	-8.86041
▁parents	-8.8653
▁pay	-8.87055
▁doctor	-8.87199
chen	-8.87269
▁study	-8.87279
▁tired	-8.87681
▁glauben	-8.88378
▁leicht	-8.88549
▁verloren	-8.88662
▁gar	-8.88762
iert	-8.89011
ol	-8.89177
▁weiter	-8.89912
▁Angst	-8.89917
▁party	-8.89984
▁talking	-8.90067
▁Lehrer	-8.90089
▁andere	-8.90116
kommen	-8.90124
▁meeting	-8.90278
▁Augen	-8.90333
▁once	-8.90455
▁große	-8.90617
▁sleep	-8.90823
▁lesen	-8.90883
▁los	-8.90931
▁ten	-8.91073
▁eure	-8.91093
▁happen	-8.91222
▁gefunden	-8.91327
▁hand	-8.91602
▁bald	-8.91719
isch	-8.91856
der	-8.91961
lä	-8.92135
▁person	-8.92261
▁Auf	-8.92311
▁Dar	-8.92676
▁unsere	-8.92881
▁together	-8.92948
id	-8.92957
ze	-8.92958
▁waiting	-8.9312
▁lang	-8.93259
▁young	-8.93357
▁früh	-8.93674
▁daran	-8.93687
▁phone	-8.93898
▁G	-8.93922
▁leid	-8.93931
▁unti	-8.93982
▁ent	-8.94127
▁world	-8.94378
▁gleich	-8.94382
▁sister	-8.94443
▁haven	-8.94451
▁John	-8.94618
▁gewesen	-8.94618
▁finden	-8.94792
▁Geschichte	-8.94859
▁run	-8.94982
gehen	-8.94984
▁genau	-8.95337
▁Bus	-8.95384
▁show	-8.95402
0	-8.95447
▁brauche	-8.95533
▁wünschte	-8.96126
ute	-8.9615
▁miss	-8.96181
▁denn	-8.96344
▁brauchen	-8.9637
▁schön	-8.96397
ng	-8.96474
▁Schwester	-8.96513
▁enjoy	-8.96562
▁most	-8.96734
▁zehn	-8.96859
▁Weiß	-8.97058
ha	-8.97245
to	-8.97268
▁Aus	-8.97377
▁anderen	-8.97417
▁bat	-8.97427
▁Wagen	-8.97555
▁fragte	-8.97587
▁hours	-8.97679
ka	-8.97753
▁Land	-8.97807
▁drive	-8.98097
ko	-8.98353
▁ago	-8.98555
▁Kind	-8.98558
▁vom	-8.98798
ern	-8.98991
em	-8.99018
▁Weg	-8.99025
▁Als	-8.99281
▁someone	-8.99316
ag	-8.99446
▁sorry	-8.99551
▁erst	-8.99617
▁M	-8.99636
bo	-8.9974
▁truth	-8.99806
▁meet	-8.99857
x	-9.00056
pf	-9.00074
▁lives	-9.002
▁seid	-9.00583
▁leben	-9.00629
▁wer	-9.00712
▁hörte	-9.00822
▁vergessen	-9.00863
▁started	-9.01008
▁Namen	-9.01103
vi	-9.01199
ab	-9.0121
▁change	-9.01311
▁überhaupt	-9.01337
▁de	-9.01405
▁difficult	-9.0149
▁mistake	-9.01541
▁park	-9.01585
ielleicht	-9.0159
▁müde	-9.01595
▁early	-9.0161
che	-9.02069
▁F	-9.02093
▁darauf	-9.02112
▁hair	-9.02372
▁dann	-9.02395
?"	-9.02622
los	-9.02729
▁minutes	-9.02873
▁sat	-9.03209
ies	-9.03211
▁turn	-9.03232
mp	-9.03384
▁both	-9.03414
▁cat	-9.03645
▁favorite	-9.03682
▁kenne	-9.03956
▁Vor	-9.03982
▁groß	-9.0424
men	-9.04251
▁died	-9.04326
▁gefällt	-9.04474
▁start	-9.04482
▁easy	-9.0474
▁station	-9.0528
▁table	-9.05309
▁working	-9.05311
▁Tisch	-9.05436
▁einige	-9.0548
▁Junge	-9.05564
▁fun	-9.05626
▁Wahrheit	-9.05811
▁steht	-9.06081
▁called	-9.06155
▁Sag	-9.06316
▁nice	-9.06352
▁police	-9.06888
▁reich	-9.06893
▁ziemlich	-9.06894
▁neue	-9.07203
ring	-9.07239
▁Eine	-9.07346
▁high	-9.0744
▁window	-9.07443
▁word	-9.07572
▁trying	-9.07628
ben	-9.0768
▁near	-9.07987
▁since	-9.07988
▁C	-9.08049
▁swim	-9.08262
▁eyes	-9.08352
ige	-9.08448
▁Komm	-9.08487
▁TV	-9.08543
▁braucht	-9.08643
ment	-9.08914
▁forget	-9.09389
ive	-9.09446
▁beide	-9.09555
▁wife	-9.09653
▁Meinung	-9.09698
▁worden	-9.09832
▁story	-9.09933
▁important	-9.10215
▁reading	-9.10277
▁hurt	-9.10285
▁Hier	-9.10288
▁weil	-9.10382
▁machte	-9.10607
▁ließ	-9.10651
▁Fragen	-9.10707
▁Arzt	-9.10787
▁lie	-9.1079
▁arbeiten	-9.11086
▁son	-9.114
▁longer	-9.11629
▁Können	-9.1163
▁gegessen	-9.1163
▁Fenster	-9.1163
▁niemand	-9.11738
▁Wort	-9.11782
▁under	-9.11811
▁ihren	-9.11886
▁rich	-9.1197
▁ran	-9.12161
▁class	-9.12202
▁fünf	-9.12222
▁mine	-9.12521
▁sp	-9.12589
▁Grund	-9.12778
▁Sohn	-9.12779
▁Stunden	-9.13041
▁musste	-9.13204
▁small	-9.13357
▁students	-9.13619
▁far	-9.13671
▁deiner	-9.13704
▁falsch	-9.13732
▁Straße	-9.14325
▁guter	-9.14347
▁voll	-9.14421
▁lieber	-9.14452
▁fell	-9.14526
▁gone	-9.14604
▁half	-9.15114
▁office	-9.15196
▁spend	-9.15449
▁Mit	-9.15594
bar	-9.15684
▁questions	-9.15825
cken	-9.15835
▁letzten	-9.15919
▁myself	-9.16004
▁number	-9.16004
sten	-9.16075
ken	-9.16334
▁R	-9.16517
ate	-9.16536
▁Antwort	-9.16602
▁Nobody	-9.16602
▁fire	-9.16688
▁Welche	-9.16797
▁Katze	-9.17327
ted	-9.17376
ier	-9.17466
▁Film	-9.17506
▁playing	-9.17531
▁picture	-9.17711
ow	-9.17755
▁dafür	-9.17823
▁krank	-9.17871
▁erste	-9.17902
▁verstehen	-9.18156
▁end	-9.18245
▁neuen	-9.18251
▁broke	-9.18552
▁snow	-9.18723
▁living	-9.18725
▁schwimmen	-9.18778
▁Minuten	-9.18859
▁pick	-9.1903
▁Japanese	-9.19031
▁liebe	-9.19071
▁möglich	-9.19134
▁früher	-9.19322
▁Musik	-9.19338
▁Hör	-9.19339
▁Tell	-9.19387
▁Re	-9.19577
▁gefallen	-9.19824
ub	-9.19948
▁dinner	-9.20266
▁Take	-9.20272
▁light	-9.20383
po	-9.20456
▁music	-9.20888
▁Polizei	-9.2089
▁Gib	-9.20934
▁bevor	-9.20975
▁Ge	-9.21264
▁needs	-9.21288
▁Danke	-9.21385
▁Rat	-9.21442
▁mean	-9.21453
▁O	-9.21477
▁child	-9.21516
▁sick	-9.21522
no	-9.21809
▁pretty	-9.21834
▁liegt	-9.21835
▁hot	-9.2187
▁hinter	-9.21913
▁kaum	-9.22151
▁Come	-9.22161
hi	-9.22471
▁angry	-9.22786
▁Dollar	-9.22787
▁cannot	-9.22789
▁bit	-9.22801
▁treffen	-9.22888
▁D	-9.23003
▁hielt	-9.23106
▁worry	-9.23106
▁bringen	-9.23132
nd	-9.23485
▁gegen	-9.23499
▁Essen	-9.2359
zen	-9.23733
▁getroffen	-9.23748
▁Ende	-9.23749
stand	-9.23895
▁arm	-9.23904
▁chance	-9.24071
▁bisschen	-9.24086
▁komme	-9.24142
am	-9.24238
▁nehmen	-9.24347
▁five	-9.24468
▁makes	-9.24762
▁finished	-9.24853
▁weit	-9.25021
▁Spaß	-9.25046
▁geschrieben	-9.25101
▁sing	-9.25202
▁Idee	-9.2539
▁Tage	-9.25576
▁through	-9.25699
▁country	-9.25703
▁versuchte	-9.25739
▁decided	-9.25787
▁trouble	-9.26028
▁city	-9.26041
▁turned	-9.26262
▁Unfall	-9.26364
▁Give	-9.26374
wa	-9.26485
.“	-9.26578
ger	-9.26581
au	-9.26599
ant	-9.26633
▁song	-9.26717
▁large	-9.26806
▁Spiel	-9.27171
▁pro	-9.27334
▁hättest	-9.27483
▁Bahnhof	-9.27689
▁London	-9.27689
▁short	-9.27691
▁alte	-9.27696
▁jung	-9.27745
up	-9.27746
▁wearing	-9.27802
▁times	-9.27901
▁seem	-9.27946
ers	-9.27977
▁Sein	-9.27991
▁finde	-9.27994
▁sofort	-9.28026
▁Park	-9.28043
▁arrived	-9.28195
▁Marias	-9.28217
▁whe	-9.28366
▁movie	-9.28436
▁hatten	-9.28559
▁watching	-9.28591
ß	-9.28642
▁Fahrrad	-9.28699
rei	-9.28807
▁H	-9.29272
▁draußen	-9.29378
▁vielleicht	-9.29385
▁nächsten	-9.29656
▁stupid	-9.2972
▁fragen	-9.29727
we	-9.30118
▁Get	-9.30355
▁reason	-9.30406
▁Z	-9.3041
▁those	-9.3042
▁spielt	-9.30439
▁met	-9.30564
▁wohnt	-9.30571
▁usual	-9.30751
▁welche	-9.31044
▁einzige	-9.31136
▁Plan	-9.31224
▁fish	-9.31316
▁gegeben	-9.31334
▁lunch	-9.31444
ete	-9.31567
▁wenig	-9.31711
▁everyone	-9.31807
▁month	-9.31927
lie	-9.31928
▁walked	-9.32456
▁breakfast	-9.32493
▁schwierig	-9.32493
▁close	-9.32699
▁schreiben	-9.32883
ug	-9.32886
▁Seine	-9.3302
▁listen	-9.33074
▁ready	-9.33158
▁part	-9.33197
▁killed	-9.33344
v	-9.33431
op	-9.33548
pe	-9.33606
▁agree	-9.33625
art	-9.33672
▁ja	-9.33697
▁advice	-9.33909
ine	-9.34071
▁Sorgen	-9.34132
und	-9.34155
▁goes	-9.34161
▁woman	-9.34293
▁Bild	-9.3459
▁wann	-9.34662
äu	-9.34863
▁town	-9.35046
▁Le	-9.35097
▁order	-9.3521
ting	-9.35256
ster	-9.35257
▁schlafen	-9.35493
▁dabei	-9.35707
▁Everyone	-9.35709
igen	-9.35765
▁bereit	-9.3578
▁halten	-9.35795
▁wichtig	-9.358
▁age	-9.35959
▁caught	-9.36079
▁War	-9.36371
▁having	-9.36436
▁Viele	-9.36438
▁Stelle	-9.36563
?“	-9.36662
▁hungry	-9.36804
hin	-9.3706
▁six	-9.3717
▁shoes	-9.37194
ien	-9.37441
▁brauchst	-9.37539
▁glad	-9.37539
▁baby	-9.3754
während	-9.37548
▁gelesen	-9.37603
▁As	-9.37611
▁weißt	-9.37645
▁Dies	-9.3772
▁Monat	-9.37732
▁Schüler	-9.37909
▁dark	-9.37911
▁tea	-9.37931
▁visit	-9.37949
▁wurden	-9.37949
▁interesting	-9.37951
▁verlassen	-9.37953
▁Sei	-9.37982
▁Ha	-9.38131
▁interested	-9.38336
▁später	-9.3834
▁würdest	-9.3846
▁ihrer	-9.38662
▁free	-9.38672
I	-9.38743
▁saying	-9.39024
▁gewöhnlich	-9.39029
▁Menge	-9.3903
ein	-9.3904
▁Freundin	-9.39126
aus	-9.39139
ous	-9.39148
▁news	-9.39171
▁later	-9.39255
▁verstehe	-9.39377
▁Dinge	-9.39416
▁game	-9.39472
▁clothes	-9.39796
▁tat	-9.39911
▁cook	-9.40008
taking	-9.40319
▁eating	-9.40319
age	-9.40331
▁become	-9.40541
▁daughter	-9.40541
▁Hotel	-9.40541
▁tennis	-9.40551
pa	-9.40592
▁fiel	-9.40618
▁o	-9.40624
▁frei	-9.40664
▁wegen	-9.40905
▁Telefon	-9.40923
▁probabl	-9.40923
▁mache	-9.41049
▁Mensch	-9.41241
▁versucht	-9.4126
▁kept	-9.41306
▁Würde	-9.41306
▁bring	-9.41365
▁Her	-9.41614
▁Australia	-9.4169
▁computer	-9.4169
▁dream	-9.41691
▁überrascht	-9.41691
▁machst	-9.4177
▁arbeitet	-9.41825
▁red	-9.41938
her	-9.42181
▁bereits	-9.42248
tion	-9.42258
ful	-9.42303
▁lebt	-9.42346
icht	-9.42398
▁Glück	-9.42464
▁gr	-9.42825
▁richtig	-9.42959
ity	-9.43147
halten	-9.43233
▁river	-9.43244
▁geworden	-9.4327
▁Regen	-9.43272
tzt	-9.43281
▁besuchen	-9.43344
ik	-9.43435
▁kalt	-9.43503
▁trinken	-9.43525
▁Ka	-9.43544
▁Am	-9.43578
▁Um	-9.43598
▁box	-9.43636
▁neues	-9.43644
▁mo	-9.4372
▁secret	-9.44027
▁fährt	-9.4403
▁Stop	-9.4403
▁jemanden	-9.44112
▁Zu	-9.44125
▁behind	-9.44246
▁fand	-9.44251
▁Schuhe	-9.44364
▁cup	-9.44443
▁con	-9.44625
▁Johannes	-9.44822
▁street	-9.44822
▁Some	-9.44876
▁hands	-9.45173
▁Which	-9.4522
▁exactly	-9.45227
co	-9.45302
▁Büro	-9.4562
▁Tokyo	-9.4562
▁decision	-9.4562
▁OK	-9.45623
▁fuhr	-9.45625
iv	-9.45627
▁großen	-9.4565
▁To	-9.45661
▁Möchte	-9.45685
▁cut	-9.45824
▁face	-9.46023
▁e	-9.461
▁kurz	-9.46104
▁lived	-9.46175
▁fing	-9.46329
▁Glaub	-9.46378
ische	-9.46381
▁vorbei	-9.46423
▁Schlüssel	-9.46425
▁Fluss	-9.46425
30.	-9.46498
▁warm	-9.46524
▁front	-9.4683
zeit	-9.46867
▁full	-9.46876
▁thinking	-9.46933
▁older	-9.46987
▁dress	-9.4705
▁bicycle	-9.47236
▁promise	-9.47361
ia	-9.47405
▁sehe	-9.47537
▁Australien	-9.47645
▁break	-9.47645
▁Stunde	-9.47682
▁sonst	-9.47692
▁surprised	-9.47761
▁loves	-9.47936
▁touch	-9.48037
▁black	-9.48055
ich	-9.48134
fall	-9.4823
▁Ihren	-9.48259
ac	-9.4826
▁death	-9.48466
▁älter	-9.48466
▁head	-9.48479
heit	-9.48488
▁student	-9.48506
▁changed	-9.48507
S	-9.48655
▁Mo	-9.48713
▁trust	-9.48726
▁gesprochen	-9.48879
▁homework	-9.48879
▁felt	-9.48881
▁Tee	-9.48937
▁Nach	-9.49138
▁studying	-9.49145
qu	-9.4918
▁Denk	-9.49236
▁Lieblings	-9.49294
▁possible	-9.4936
ta	-9.49583
▁dollars	-9.49711
▁thank	-9.49748
▁Ab	-9.49845
▁cost	-9.49936
ling	-9.50006
▁hate	-9.50124
▁wrote	-9.50129
▁language	-9.50194
▁mögen	-9.502
▁Just	-9.50232
nehmen	-9.50309
▁Schuld	-9.50386
▁Sa	-9.50521
▁asleep	-9.50549
▁hoch	-9.50581
▁sit	-9.50587
▁Bo	-9.50738
▁win	-9.50871
mal	-9.50885
▁denken	-9.50918
▁Nachricht	-9.50943
▁liebt	-9.50963
▁company	-9.50971
▁birthday	-9.50972
▁weather	-9.51395
▁making	-9.51398
▁expect	-9.5149
▁Go	-9.51521
▁hätten	-9.51572
▁Sp	-9.51815
▁Tennis	-9.51819
▁Ou	-9.5186
▁U	-9.51872
▁ship	-9.51949
▁Ro	-9.5199
▁versuchen	-9.52085
▁Tu	-9.52135
▁summer	-9.5225
▁hotel	-9.52299
▁thirty	-9.52315
▁Jeder	-9.52344
▁Fall	-9.52389
▁Bier	-9.52393
app	-9.52404
▁wear	-9.52423
▁pass	-9.52486
▁Feuer	-9.52677
▁Abendessen	-9.52686
▁Bank	-9.52701
▁outside	-9.52735
▁nächste	-9.52868
▁deinem	-9.52962
▁began	-9.53088
▁paper	-9.53108
▁eigene	-9.53113
ran	-9.53157
▁Entscheidung	-9.53541
sa	-9.53754
▁bestimmt	-9.53976
▁erinnern	-9.53976
▁sechs	-9.53976
▁eigentlich	-9.53977
ank	-9.53978
▁heraus	-9.54105
▁saß	-9.54399
▁Wetter	-9.54429
▁tree	-9.54553
▁Look	-9.54855
▁stark	-9.54956
▁l	-9.55011
▁erwartet	-9.55068
▁halb	-9.55109
▁Tochter	-9.55292
▁afternoon	-9.55292
▁dreißig	-9.55292
▁worth	-9.55292
▁along	-9.55293
ungen	-9.55333
▁Geh	-9.55377
▁stehen	-9.55383
lassen	-9.55443
▁acht	-9.55445
"	-9.55556
▁Gibt	-9.55673
▁careful	-9.55674
▁g	-9.56024
chte	-9.56149
▁Schiff	-9.56179
▁kennt	-9.56179
▁20	-9.56201
▁catch	-9.56241
▁Wein	-9.56395
▁frage	-9.56522
▁clean	-9.56541
▁Un	-9.56568
▁stellte	-9.56592
▁cake	-9.56625
▁born	-9.56626
▁trägt	-9.56709
▁beiden	-9.5671
▁plane	-9.56775
▁eines	-9.56852
▁finish	-9.56887
▁Kuchen	-9.57079
▁dorthin	-9.57103
▁anybody	-9.5713
▁vier	-9.57147
▁Bring	-9.57225
▁seat	-9.57225
bra	-9.57308
teil	-9.57488
▁paid	-9.57524
▁Platz	-9.57524
▁Fuß	-9.57529
▁spent	-9.57535
▁moment	-9.5754
00	-9.57543
j	-9.57626
▁Schau	-9.57673
▁gehst	-9.57693
▁kill	-9.57792
▁comes	-9.57987
▁etwa	-9.58186
dem	-9.58382
▁between	-9.58431
▁hospital	-9.58431
▁point	-9.58431
▁Licht	-9.58453
▁sun	-9.58491
▁Ma	-9.58495
▁starb	-9.58623
▁hour	-9.58671
▁Sunday	-9.58888
▁heiraten	-9.58888
▁rest	-9.58955
▁aufhören	-9.58985
▁set	-9.59051
▁glaubt	-9.59103
▁became	-9.59346
▁trip	-9.59348
▁siehst	-9.59393
▁meisten	-9.59479
▁Pass	-9.59487
▁weh	-9.59617
▁heißt	-9.59675
bl	-9.59938
▁ba	-9.60041
▁whole	-9.60083
▁travel	-9.60126
▁Hausaufgaben	-9.6027
▁opinion	-9.6027
▁Party	-9.6027
▁piece	-9.60276
▁fern	-9.60317
▁freue	-9.60414
▁ihnen	-9.60557
▁völlig	-9.60735
▁present	-9.60735
zwischen	-9.60736
▁Sonne	-9.6074
▁Kopf	-9.60744
less	-9.60872
▁works	-9.60916
▁Sache	-9.60919
▁Thank	-9.60992
ca	-9.61051
so	-9.61154
▁quickly	-9.61223
▁dead	-9.61231
▁Tasse	-9.61272
▁speaks	-9.61347
▁allen	-9.61472
per	-9.61513
▁forgot	-9.61614
▁milk	-9.61672
▁sense	-9.61673
▁New	-9.61697
▁di	-9.62047
▁business	-9.62144
▁außer	-9.62145
▁deal	-9.62231
▁camera	-9.62244
▁wine	-9.62271
▁stopped	-9.62627
▁Ob	-9.62642
▁lose	-9.62678
▁Reise	-9.62765
▁halte	-9.62793
▁isst	-9.62956
▁Haare	-9.62998
▁Jungen	-9.63057
▁tonight	-9.63102
▁schien	-9.63119
sh	-9.63348
▁bag	-9.63371
▁bar	-9.6354
▁Geburtstag	-9.6356
▁grow	-9.63585
▁hit	-9.63589
▁Lage	-9.6361
▁fine	-9.63626
▁glasses	-9.63649
iz	-9.63924
▁Ahnung	-9.64053
ue	-9.64085
▁sound	-9.64167
▁L	-9.64178
▁Seid	-9.64279
pr	-9.6432
wohl	-9.6439
▁Lied	-9.64464
▁Männer	-9.64536
▁Krankenhaus	-9.64536
▁poor	-9.64537
▁Hände	-9.6454
▁ex	-9.64697
▁beer	-9.64889
▁beach	-9.64924
▁niemals	-9.6508
sam	-9.65294
▁Milch	-9.65509
▁gelernt	-9.65509
▁Raum	-9.65521
ated	-9.65537
▁Hut	-9.65543
▁fest	-9.65582
▁stayed	-9.65708
▁ange	-9.65882
▁länger	-9.66
▁restaurant	-9.66
▁dance	-9.66003
▁helped	-9.66027
les	-9.66149
ssen	-9.66221
▁Deine	-9.66368
▁Garten	-9.66492
▁verliebt	-9.66492
nder	-9.66537
▁fürchte	-9.66655
▁zog	-9.66669
▁Möchtes	-9.66907
mals	-9.66985
▁verletzt	-9.66987
▁zeigen	-9.66987
ry	-9.67045
▁kleine	-9.67104
ever	-9.67251
▁Keep	-9.67485
▁Monday	-9.67485
▁Sommer	-9.67485
▁gedacht	-9.67485
▁lässt	-9.67485
▁hierher	-9.67618
▁Blumen	-9.67683
liche	-9.67847
geben	-9.67852
▁smoking	-9.67985
▁setzte	-9.67985
▁Teil	-9.67988
▁Co	-9.68068
▁also	-9.68316
ler	-9.68329
▁floor	-9.68487
▁horse	-9.68487
▁store	-9.68488
▁stimmt	-9.68608
▁unser	-9.68809
om	-9.68881
▁Nähe	-9.68992
▁geboren	-9.69036
tag	-9.69059
▁Arm	-9.69069
▁schlecht	-9.69125
▁known	-9.69222
▁anders	-9.69433
▁zufrieden	-9.6949
▁which	-9.69507
▁kennen	-9.6957
rate	-9.69632
▁For	-9.69643
▁Put	-9.69663
▁gets	-9.69807
auf	-9.69869
▁needed	-9.69931
▁safe	-9.70008
▁Geschäft	-9.7001
▁denkst	-9.70014
▁gebeten	-9.70051
▁pain	-9.70241
▁kommst	-9.70258
▁La	-9.70274
man	-9.705
▁certain	-9.70523
▁building	-9.70556
▁brachte	-9.70671
▁Ko	-9.7083
▁Fa	-9.71022
▁dictionary	-9.71038
▁different	-9.71039
▁girlfriend	-9.71056
▁Erfolg	-9.71105
▁Baum	-9.71293
▁stellen	-9.71525
halt	-9.71538
▁gestohlen	-9.71556
▁price	-9.71606
▁garden	-9.71607
▁Art	-9.71652
▁trug	-9.71654
▁ate	-9.71705
▁Seite	-9.71802
▁co	-9.71999
▁key	-9.72032
▁expensive	-9.72077
▁hurry	-9.72077
▁Even	-9.72081
▁anderes	-9.72088
▁jeder	-9.72254
▁Dein	-9.72274
▁explain	-9.72414
▁One	-9.72431
▁Sinn	-9.72572
▁umbrella	-9.72601
▁singen	-9.72816
▁Nachmittag	-9.73127
▁report	-9.73127
bt	-9.73229
eln	-9.73283
uf	-9.73431
▁kids	-9.73476
▁interessiert	-9.73656
▁mountain	-9.73656
▁klar	-9.73671
▁bitten	-9.73898
▁desk	-9.73989
reich	-9.74179
▁bank	-9.74216
ak	-9.74256
▁schöne	-9.74276
hä	-9.74391
ap	-9.74401
▁warst	-9.74404
▁erzählt	-9.74456
▁air	-9.74475
▁Fisch	-9.74485
ritt	-9.74568
ende	-9.74634
lau	-9.74712
▁China	-9.74723
▁Montag	-9.74723
▁Schnee	-9.74724
▁road	-9.74737
▁white	-9.74774
▁Hunde	-9.74784
▁Bei	-9.74905
and	-9.74934
io	-9.75044
▁legte	-9.75102
zig	-9.75116
▁evening	-9.75135
▁See	-9.75149
▁feeling	-9.75248
ai	-9.75326
▁Se	-9.75525
▁Geschenk	-9.75801
▁Stück	-9.75801
▁wütend	-9.75801
▁prefer	-9.75801
▁owe	-9.75865
ually	-9.75872
▁kaufte	-9.75977
ink	-9.76154
clock	-9.76257
▁Eis	-9.76275
▁per	-9.76286
▁Paris	-9.7635
▁solve	-9.76355
▁heart	-9.76563
▁eaten	-9.76564
end	-9.76605
▁Studenten	-9.76657
▁alleine	-9.76657
nis	-9.76694
▁tragen	-9.76717
▁closed	-9.76784
▁piano	-9.76891
▁verheiratet	-9.76891
▁Wahl	-9.76899
mit	-9.76913
▁team	-9.76918
▁mistakes	-9.77006
mi	-9.77118
▁Di	-9.77222
▁strange	-9.77226
▁N	-9.77368
▁Klasse	-9.77376
▁herum	-9.77414
▁guess	-9.77441
▁ticket	-9.77441
▁sentence	-9.77441
▁Baby	-9.77442
▁Wörterbuch	-9.77442
▁größer	-9.77443
▁sell	-9.77452
▁talked	-9.77523
▁sprach	-9.77539
▁Rauchen	-9.77544
30	-9.778
▁lustig	-9.77993
▁genauso	-9.78013
▁raus	-9.7806
▁bezahlen	-9.78088
▁flowers	-9.78117
mo	-9.78326
▁nett	-9.78535
▁Frühstück	-9.78549
▁Klavier	-9.78549
▁smoke	-9.78549
▁bezahlt	-9.78557
▁Ruf	-9.78644
▁blieb	-9.78653
▁loved	-9.7871
iger	-9.78815
▁arrive	-9.78824
bi	-9.78953
▁move	-9.79025
▁worried	-9.79107
▁dangerous	-9.79114
▁wahrscheinlich	-9.79131
▁heiß	-9.79168
ob	-9.79275
▁Dr	-9.79601
▁Gefängnis	-9.79669
▁gefährlich	-9.79669
▁count	-9.7978
▁real	-9.79878
▁telling	-9.79955
▁begann	-9.80137
arbeit	-9.80204
▁across	-9.80234
▁least	-9.80234
▁situation	-9.80234
▁blame	-9.80234
▁Liebe	-9.80238
ight	-9.80326
▁offen	-9.80401
▁played	-9.80466
▁kiss	-9.80472
▁opened	-9.80766
▁beantworten	-9.80802
▁ruhig	-9.80802
▁Küche	-9.80803
▁Nimm	-9.80805
▁darum	-9.8084
▁solche	-9.80851
▁klein	-9.81247
leg	-9.8126
▁apologize	-9.81374
▁besonders	-9.81374
▁couple	-9.81374
sehen	-9.81474
▁Kleid	-9.81551
▁rein	-9.81626
▁dis	-9.81727
▁nehme	-9.81742
▁Br	-9.81837
▁Prüfung	-9.81948
▁Schwierigkeiten	-9.81948
▁drunk	-9.81948
▁Krieg	-9.81948
▁besteht	-9.81949
▁Lo	-9.81982
▁inside	-9.82013
▁dumm	-9.82306
▁realize	-9.82436
▁Angelegenheit	-9.82526
▁Brille	-9.82526
▁Everybody	-9.82526
▁telephone	-9.82526
▁niemandem	-9.82555
▁ro	-9.82696
einander	-9.82827
▁interessant	-9.82991
▁quiet	-9.83029
▁Sonntag	-9.83108
▁Wochenende	-9.83113
▁Feier	-9.83126
▁gingen	-9.83135
▁Rede	-9.83205
▁Recht	-9.8339
▁speaking	-9.83475
hör	-9.83497
ki	-9.83527
▁blue	-9.83585
▁library	-9.83693
▁four	-9.83704
▁10	-9.83787
tic	-9.8381
ide	-9.83832
▁Versuch	-9.83933
▁Preis	-9.83939
▁Thanks	-9.83957
▁Tasche	-9.84136
▁Restaurant	-9.84281
▁York	-9.84281
▁Glas	-9.84281
▁noise	-9.84282
▁weekend	-9.84307
▁Alter	-9.84361
▁past	-9.84422
sche	-9.8453
ei	-9.84554
rie	-9.84678
▁spoke	-9.84681
▁Computer	-9.84873
▁written	-9.84873
▁attention	-9.84873
do	-9.84877
▁Woher	-9.84949
▁teach	-9.8501
ischen	-9.8503
▁Soll	-9.85034
▁Haar	-9.85044
▁Li	-9.85049
▁v	-9.85059
▁guys	-9.85121
▁laufen	-9.85156
▁Sprache	-9.8528
ack	-9.85435
▁guitar	-9.85468
▁wüsste	-9.85468
▁dagegen	-9.85468
▁Flugzeug	-9.85469
▁Strand	-9.85472
▁takes	-9.85538
▁besten	-9.85585
▁Mag	-9.85714
▁men	-9.85723
▁seemed	-9.85846
▁geschehen	-9.86067
▁Person	-9.86067
▁case	-9.86068
▁Tod	-9.86319
▁Mi	-9.86371
▁alten	-9.8649
igkeit	-9.86499
▁Frauen	-9.86517
▁missed	-9.86527
▁tall	-9.86666
▁Gesicht	-9.86669
▁hart	-9.8667
▁running	-9.86672
▁schlief	-9.86676
▁könnt	-9.86933
▁sta	-9.86973
nte	-9.87144
▁driver	-9.87191
▁Christmas	-9.87275
▁selten	-9.87275
▁z	-9.87377
▁benutzen	-9.87388
▁lieben	-9.87476
▁begin	-9.87491
▁asking	-9.8751
▁Ohn	-9.87535
▁fallen	-9.87684
▁befindet	-9.87685
ical	-9.87724
▁wolle	-9.87725
▁glass	-9.87788
▁Everything	-9.87885
▁verdient	-9.87885
▁erklären	-9.87885
▁froh	-9.87885
▁sage	-9.87943
▁shirt	-9.8798
▁Schw	-9.88144
▁showed	-9.88355
king	-9.88383
▁problems	-9.88396
▁second	-9.88498
▁swimming	-9.885
▁chair	-9.88513
▁sitting	-9.88514
▁Moment	-9.88515
▁supposed	-9.88599
ness	-9.88817
led	-9.88881
▁schlechte	-9.88977
▁Alles	-9.88999
▁thinks	-9.89023
▁Hunger	-9.89116
▁completely	-9.89159
▁Zeitung	-9.89177
▁carry	-9.89187
mat	-9.8924
▁guten	-9.89484
▁worked	-9.89599
ish	-9.89699
▁famous	-9.89737
▁Brot	-9.89742
▁lying	-9.89751
▁Boden	-9.89769
log	-9.89785
▁niemanden	-9.90095
▁Na	-9.90161
▁accept	-9.90174
▁spreche	-9.90206
▁Kamera	-9.90362
▁choice	-9.90362
▁erfahren	-9.90538
ian	-9.90618
▁wach	-9.9067
▁ausge	-9.90741
▁Pa	-9.90802
▁Gebäude	-9.90991
▁planning	-9.90995
▁la	-9.90996
▁Ort	-9.91012
▁ice	-9.9102
▁pen	-9.91066
▁Könnt	-9.91334
▁Sachen	-9.91439
▁bill	-9.91445
hose	-9.91567
▁side	-9.91567
▁correct	-9.91623
▁risk	-9.91624
▁exam	-9.91637
schen	-9.91641
▁tust	-9.91761
▁seines	-9.92026
▁langsam	-9.92051
▁würden	-9.92065
▁America	-9.92116
▁ski	-9.92126
▁weniger	-9.92137
▁serious	-9.92183
▁waited	-9.92229
▁Taxi	-9.9226
▁medicine	-9.9226
▁stolz	-9.9226
▁fair	-9.92261
▁Schreibtisch	-9.92261
va	-9.92322
▁Not	-9.92589
schaft	-9.92607
▁words	-9.92828
▁lösen	-9.92902
▁traffic	-9.92902
▁Jetzt	-9.92908
fahr	-9.92935
▁Nicht	-9.92977
▁Unter	-9.92994
▁wall	-9.93038
one	-9.93043
▁apple	-9.93221
▁At	-9.93416
▁health	-9.93443
▁clear	-9.93469
ierte	-9.93539
▁gift	-9.93547
▁Gitarre	-9.93547
▁fällt	-9.93547
▁regnen	-9.93547
▁Apfel	-9.93588
▁send	-9.93634
▁Al	-9.937
▁beste	-9.93742
▁Fr	-9.93835
gang	-9.93957
▁ball	-9.93976
▁test	-9.94092
▁neben	-9.94165
▁lief	-9.94182
▁Hätte	-9.94196
▁angefangen	-9.94196
▁Winter	-9.94196
▁euer	-9.94196
▁driving	-9.94197
▁Chance	-9.94198
▁ständig	-9.94199
▁doubt	-9.94207
▁öffnete	-9.94243
▁einander	-9.9425
▁Kenn	-9.94414
▁less	-9.94424
▁ernst	-9.94533
▁möchtest	-9.94641
▁promised	-9.94649
▁erinnere	-9.9485
▁Gestern	-9.9485
▁bottle	-9.9485
▁Fußball	-9.94852
▁Roman	-9.94859
▁Hemd	-9.95025
▁darfst	-9.95067
▁Probleme	-9.95117
▁gebracht	-9.95142
▁Uni	-9.95466
▁Bescheid	-9.95508
▁Onkel	-9.95508
▁berühmt	-9.95508
▁egal	-9.95508
▁irgendwo	-9.95509
▁Mittag	-9.95518
▁hört	-9.95529
▁passieren	-9.95532
▁besucht	-9.95542
▁tie	-9.9575
▁liked	-9.95759
ition	-9.9576
▁Lebens	-9.95805
▁fühle	-9.96048
▁suchen	-9.96093
▁learned	-9.96117
▁weight	-9.96134
▁address	-9.9617
▁husband	-9.9617
▁uncle	-9.9617
▁feed	-9.96174
▁Fl	-9.96206
▁sagst	-9.96305
▁Here	-9.96323
▁denkt	-9.9635
▁Unser	-9.96485
genommen	-9.96536
▁guy	-9.96558
▁drinking	-9.96671
▁American	-9.96691
▁Amerika	-9.96834
▁kitchen	-9.96836
▁leisten	-9.96836
▁lernt	-9.96842
▁Für	-9.96849
▁Gefahr	-9.96992
“	-9.97041
ok	-9.9715
ür	-9.97159
▁months	-9.97248
▁ho	-9.97338
▁li	-9.97362
▁brought	-9.97508
▁crazy	-9.97508
▁Luft	-9.97508
▁color	-9.97508
▁geschafft	-9.97508
stellen	-9.97516
▁coat	-9.97537
ieb	-9.9756
ite	-9.97599
▁erzählen	-9.97611
▁listening	-9.97782
▁expected	-9.97803
▁sleeping	-9.97925
▁herein	-9.98135
▁college	-9.98183
▁gefragt	-9.98183
▁verrückt	-9.98183
▁Bericht	-9.98185
▁Kindern	-9.9832
laden	-9.98364
ging	-9.98409
äch	-9.98414
▁3	-9.98425
ance	-9.98459
▁wert	-9.9855
▁dogs	-9.98606
▁check	-9.98676
▁spazieren	-9.98864
▁proud	-9.98864
▁Mittagessen	-9.98867
▁suit	-9.98868
▁sent	-9.98882
2	-9.9889
▁lo	-9.99046
hand	-9.99068
▁fall	-9.99184
▁sonder	-9.99192
▁De	-9.99239
aff	-9.99288
▁pretend	-9.99404
aught	-9.9953
▁Schlaf	-9.99546
▁schlug	-9.99548
▁ändern	-9.99548
▁Lust	-9.99549
▁novel	-9.99551
A	-9.99607
▁Tagen	-9.99684
bel	-9.99789
tür	-9.99796
▁kleinen	-9.99797
▁player	-9.99933
▁others	-10.0021
▁seven	-10.0024
▁Jemand	-10.0024
▁rannte	-10.0027
▁hasse	-10.0036
▁crying	-10.0038
▁sc	-10.0061
▁brauchte	-10.0067
▁eye	-10.0072
▁brach	-10.0074
▁Kyoto	-10.0093
▁everybody	-10.0093
▁kümmern	-10.0093
▁welcome	-10.0093
▁writing	-10.0093
▁honest	-10.0093
▁act	-10.0096
▁Laden	-10.0096
▁dürfen	-10.0101
▁stieg	-10.0111
▁noticed	-10.0116
▁passed	-10.0124
▁broken	-10.0132
rum	-10.0142
lei	-10.0149
▁könne	-10.0155
▁müsst	-10.0157
▁Ordnung	-10.0163
▁bekannt	-10.0163
▁geheiratet	-10.0163
▁sometimes	-10.0163
▁gegenüber	-10.0164
▁finally	-10.0165
▁taxi	-10.0168
▁pu	-10.0172
side	-10.0187
inde	-10.0199
▁traf	-10.0201
▁follow	-10.0201
▁laut	-10.0207
lang	-10.0225
▁danger	-10.0233
▁Canadian	-10.0234
▁People	-10.0234
▁gestorben	-10.0234
▁versteht	-10.0234
▁Papier	-10.0234
▁Flasche	-10.0234
▁boss	-10.0234
▁beginning	-10.0234
▁Versprechen	-10.0239
zug	-10.0241
wo	-10.0246
legen	-10.0266
wei	-10.0271
▁raining	-10.028
▁taken	-10.0283
▁climb	-10.0305
▁erledigen	-10.0305
▁newspaper	-10.0305
▁Fleisch	-10.0305
▁angerufen	-10.0305
▁alive	-10.0305
ating	-10.031
▁meines	-10.0315
▁scared	-10.0327
▁regnet	-10.0329
▁sieben	-10.0341
▁Warte	-10.0351
▁cry	-10.0364
1	-10.0369
▁Flughafen	-10.0376
▁Gesundheit	-10.0376
▁easily	-10.0376
▁future	-10.0376
▁either	-10.0376
▁message	-10.0376
ied	-10.039
▁echt	-10.041
▁könnten	-10.0417
▁Katzen	-10.0418
▁boys	-10.0421
▁vorsichtig	-10.0429
▁airport	-10.0448
▁Macht	-10.0451
▁Sitzung	-10.0451
▁taste	-10.0455
▁meinte	-10.0476
▁offer	-10.048
▁visited	-10.0484
▁laugh	-10.0488
▁sign	-10.0502
▁joke	-10.0504
▁großer	-10.0504
▁Koffer	-10.052
▁heavy	-10.052
▁vacation	-10.052
haft	-10.0521
▁Fernsehen	-10.0527
gezogen	-10.053
▁women	-10.0532
▁schrieb	-10.0533
▁tief	-10.0539
▁Wissen	-10.0541
▁unserer	-10.0547
▁meat	-10.0551
▁ta	-10.0559
▁strong	-10.0571
▁Ho	-10.0573
▁Name	-10.059
▁Stimme	-10.0593
▁concert	-10.0593
▁kostet	-10.0593
▁verlieren	-10.0593
▁though	-10.0601
▁teil	-10.0606
▁Fi	-10.0621
▁tue	-10.0624
▁passt	-10.063
uck	-10.0646
ial	-10.0647
▁Liste	-10.0653
▁wohnen	-10.0653
▁Geheimnis	-10.0657
▁girls	-10.066
▁fault	-10.0666
▁Himmel	-10.0667
▁leaving	-10.0667
▁smart	-10.0667
▁Sprich	-10.0668
▁sad	-10.0671
▁Try	-10.0671
zunehmen	-10.0685
▁arbeite	-10.0693
▁wartete	-10.0695
▁wem	-10.0711
▁save	-10.0713
▁Ca	-10.0727
gestellt	-10.074
▁Bibliothek	-10.0741
▁Chinese	-10.0741
▁Firma	-10.0741
▁afford	-10.0741
▁entschuldigen	-10.0741
▁patient	-10.0741
▁funny	-10.0741
▁Mantel	-10.0741
▁Ausland	-10.0742
▁shot	-10.0743
▁ring	-10.077
▁versch	-10.0781
▁abge	-10.0781
▁gutes	-10.0794
▁return	-10.0797
▁fight	-10.0804
▁gesch	-10.0814
▁Mühe	-10.0816
▁Situation	-10.0816
▁gewohnt	-10.0816
▁hundred	-10.0816
▁läuft	-10.0816
▁shopping	-10.0816
▁gewinnen	-10.0816
▁severa	-10.0817
3	-10.0824
ku	-10.0835
lichen	-10.0836
▁shop	-10.0842
▁top	-10.0849
▁hält	-10.0863
▁enttäuscht	-10.0891
▁eingeladen	-10.0891
ahn	-10.09
▁neu	-10.0908
▁Gedanken	-10.0908
▁laughed	-10.091
▁öffnen	-10.0911
▁Feind	-10.0912
bu	-10.0915
▁allzu	-10.0925
▁Mar	-10.0926
▁mad	-10.0949
▁movies	-10.095
▁Konzert	-10.0967
▁rechtzeitig	-10.0967
▁Messer	-10.0967
▁großartig	-10.0967
▁After	-10.0967
▁machine	-10.0967
▁Je	-10.0977
▁studieren	-10.0985
▁law	-10.0989
▁Hey	-10.0995
▁consider	-10.1024
off	-10.103
▁languages	-10.1031
land	-10.1033
D	-10.1034
till	-10.1042
▁anfangen	-10.1043
▁Kino	-10.1043
▁actually	-10.1044
▁winter	-10.105
▁Kiste	-10.1051
ah	-10.1055
▁wa	-10.1067
▁kissed	-10.1068
▁ma	-10.107
ard	-10.1092
▁gebe	-10.1105
▁star	-10.1113
▁normal	-10.1119
▁figure	-10.112
▁Berg	-10.1125
▁fact	-10.1126
▁wash	-10.113
▁gefahren	-10.1147
▁miteinander	-10.1151
!“	-10.1152
stehen	-10.117
ought	-10.1189
▁line	-10.1192
▁Kanadier	-10.1197
▁zeigte	-10.1197
▁sterben	-10.1197
▁Aufgabe	-10.1197
▁invited	-10.1213
▁Sieh	-10.1218
▁fehlt	-10.1235
▁schaffen	-10.124
▁Unsere	-10.1255
▁Schul	-10.1265
▁animals	-10.127
▁younger	-10.1274
▁success	-10.1275
▁Urlaub	-10.1275
▁Zukunft	-10.1275
▁bleibt	-10.1275
▁difference	-10.1275
▁speech	-10.1275
▁süß	-10.1275
▁dauern	-10.1275
▁Sofa	-10.1275
▁shower	-10.1277
zahl	-10.1281
▁manage	-10.1281
▁grandfather	-10.1281
▁leg	-10.1282
krieg	-10.1283
▁allowed	-10.1287
▁konnten	-10.1311
weise	-10.1316
ba	-10.1322
line	-10.1325
W	-10.1327
erweise	-10.1328
spiel	-10.1339
▁abroad	-10.1354
▁funktioniert	-10.1354
▁impossible	-10.1354
▁foreign	-10.1354
▁join	-10.1354
▁Bleib	-10.1354
▁ungefähr	-10.1355
▁höre	-10.1356
▁lend	-10.1356
▁darin	-10.1358
▁ill	-10.1361
gar	-10.1395
▁unbe	-10.1398
mann	-10.1403
▁Wochen	-10.1408
▁Ra	-10.1415
▁hab	-10.1426
que	-10.1427
zi	-10.1428
▁intelligent	-10.1434
▁translate	-10.1434
▁hungrig	-10.1434
▁lawyer	-10.1434
▁worse	-10.1434
▁erreichen	-10.1434
▁unmöglich	-10.1435
▁Mund	-10.1437
▁Fahr	-10.1441
▁anrufen	-10.1444
▁plans	-10.1447
▁list	-10.1447
▁forward	-10.145
▁pictures	-10.1459
▁Wand	-10.1461
▁jede	-10.1466
▁Post	-10.1488
▁wollt	-10.1503
▁perfect	-10.1506
▁kamen	-10.151
▁regret	-10.1514
▁seltsam	-10.1514
▁voice	-10.1514
▁radio	-10.1514
▁freundlich	-10.1514
▁twice	-10.1515
▁seeing	-10.1518
di	-10.154
▁Student	-10.1548
▁Tiere	-10.1569
lange	-10.1575
▁happens	-10.1589
▁genommen	-10.159
▁England	-10.1594
▁knife	-10.1594
▁nervous	-10.1594
▁nahe	-10.1594
▁Besuch	-10.1594
▁sky	-10.1595
ving	-10.1596
▁boyfriend	-10.1598
▁Staaten	-10.1603
▁letzter	-10.1608
▁carefully	-10.1608
bald	-10.1613
▁sounds	-10.1623
ität	-10.1625
▁kn	-10.1641
pro	-10.1653
▁eggs	-10.1654
ally	-10.1655
▁land	-10.1665
▁bread	-10.1676
▁shut	-10.1676
▁kochen	-10.1676
▁deep	-10.1676
▁täte	-10.1676
▁bother	-10.168
▁wohin	-10.1684
▁Von	-10.1688
▁entschieden	-10.1692
weg	-10.1693
▁Keiner	-10.1696
pfel	-10.1696
essen	-10.1699
▁wi	-10.1716
▁On	-10.1727
▁given	-10.1735
▁Me	-10.1742
▁somewhere	-10.1757
▁rief	-10.1758
▁waste	-10.1769
▁Vi	-10.1769
▁whatever	-10.1781
,000	-10.1794
fahren	-10.1794
▁pl	-10.1796
▁las	-10.1812
▁fix	-10.1822
▁wind	-10.1833
▁kaputt	-10.184
▁popular	-10.184
▁mood	-10.184
▁Chef	-10.184
▁common	-10.184
▁schw	-10.1842
▁disappointed	-10.1847
▁failed	-10.185
▁dahin	-10.1851
rat	-10.1855
ache	-10.1858
▁Eier	-10.1866
hm	-10.1869
▁prison	-10.1877
▁setzen	-10.188
haus	-10.1884
▁aß	-10.1886
▁stolen	-10.1897
▁Per	-10.1904
▁darf	-10.191
▁spielte	-10.1917
▁Hol	-10.192
▁bringt	-10.1922
▁Entschuldige	-10.1923
▁Großvater	-10.1923
▁ehrlich	-10.1923
▁vote	-10.1924
▁recognize	-10.1924
▁verpasst	-10.1924
▁liest	-10.1924
▁Zeig	-10.1925
time	-10.1925
▁spring	-10.1927
▁minute	-10.193
▁keys	-10.1931
▁Gu	-10.1935
▁Pferd	-10.1955
▁magst	-10.196
▁Str	-10.1961
▁solle	-10.1965
go	-10.1967
ziehen	-10.1983
▁cha	-10.1986
▁Freunden	-10.1986
▁wears	-10.1989
▁leiden	-10.1998
▁murder	-10.2007
▁Rechnung	-10.2007
▁betrunken	-10.2007
▁derjenige	-10.2007
▁klug	-10.2007
▁terrible	-10.2007
▁teuer	-10.2007
▁village	-10.2007
▁Today	-10.2008
▁apartment	-10.2008
▁Germany	-10.2018
ong	-10.2021
▁pri	-10.203
▁wartet	-10.2041
▁Vereinig	-10.2092
▁baseball	-10.2092
▁geholfen	-10.2092
▁jünger	-10.2092
▁stood	-10.2092
▁eight	-10.2094
▁fahre	-10.21
▁ziehen	-10.2105
▁gesucht	-10.2106
chi	-10.2107
▁rent	-10.2108
▁Sprachen	-10.2119
▁angekommen	-10.212
▁jedem	-10.2137
▁gelassen	-10.2157
▁standing	-10.2161
▁personal	-10.217
▁Hoffnung	-10.2178
▁bridge	-10.2178
▁gewonnen	-10.2178
▁glaubst	-10.2178
▁herself	-10.2178
▁simple	-10.2178
▁sweet	-10.2178
▁zwar	-10.2178
▁dauert	-10.2178
▁Nothing	-10.2178
▁traurig	-10.2178
▁Farbe	-10.2178
▁Someone	-10.2179
▁sitzen	-10.218
▁Fernseher	-10.2182
▁reparieren	-10.2185
gelegt	-10.2185
▁lied	-10.2203
▁singing	-10.2215
rüber	-10.223
▁Ihrer	-10.2237
▁Gefühle	-10.225
▁German	-10.2253
▁Wa	-10.2256
▁Angebot	-10.2264
▁Treffen	-10.2264
▁nervös	-10.2264
▁stimme	-10.2264
▁suitcase	-10.2264
▁tanzen	-10.2264
▁böse	-10.2264
▁Möglichkeit	-10.2264
▁nimmt	-10.2264
▁beg	-10.2274
▁Foto	-10.2275
sitz	-10.2289
▁Fe	-10.2302
mon	-10.2334
▁solltet	-10.2341
▁Reis	-10.2343
old	-10.2346
▁Lärm	-10.2351
▁anywhere	-10.2351
▁kennengelernt	-10.2351
▁gespielt	-10.2351
▁Yen	-10.2351
▁Erzähl	-10.2351
▁verkauft	-10.2352
▁Dorf	-10.2352
▁Job	-10.2352
▁sight	-10.2352
▁Finde	-10.2356
▁yen	-10.2359
gi	-10.2376
▁cl	-10.238
Ich	-10.2383
▁Po	-10.2387
for	-10.2392
▁erwarten	-10.2394
▁com	-10.2396
▁Ball	-10.2402
▁notice	-10.2411
▁Telefonnummer	-10.2439
▁blood	-10.2439
▁bloß	-10.2439
▁pocket	-10.2439
▁Satz	-10.2439
▁Wohnung	-10.2443
▁möchten	-10.2446
▁Halte	-10.2447
▁redet	-10.2452
▁30	-10.2455
▁Traum	-10.2458
cht	-10.2463
schul	-10.2473
▁mi	-10.2478
▁japanische	-10.2481
▁gleiche	-10.2482
▁allem	-10.2488
▁date	-10.2489
▁weeks	-10.2513
▁fühlte	-10.2524
▁Freude	-10.2527
▁Tokio	-10.2527
▁appreciate	-10.2527
▁benutzt	-10.2527
▁breath	-10.2527
▁mouth	-10.2527
▁protect	-10.2527
▁sauber	-10.2527
▁schläft	-10.2527
▁blind	-10.2527
▁verstanden	-10.2527
▁Finger	-10.2527
▁Radio	-10.2528
▁Letzte	-10.2528
▁Zwei	-10.2532
▁bedeutet	-10.2533
▁endlich	-10.2535
uß	-10.2541
▁lag	-10.2558
▁cooking	-10.2561
▁Manche	-10.2567
▁Unterricht	-10.259
▁Einige	-10.2591
▁eats	-10.2598
▁treat	-10.2598
▁j	-10.2613
▁fruit	-10.2616
▁Blut	-10.2616
▁Deutschland	-10.2617
▁Ruhe	-10.2617
▁plötzlich	-10.2617
▁necessary	-10.2618
▁harder	-10.2621
▁hingehen	-10.2625
▁verlor	-10.2661
▁apples	-10.2662
gra	-10.2663
uc	-10.2664
▁esse	-10.2664
▁fat	-10.2665
▁Japanisch	-10.2667
▁Witz	-10.2677
▁Universität	-10.2706
▁Schirm	-10.2706
▁bekam	-10.2707
▁Vorschlag	-10.2707
▁cats	-10.2718
▁fla	-10.2727
▁sahen	-10.2729
T	-10.2734
voll	-10.2734
reise	-10.2738
rich	-10.2741
▁glaubte	-10.2754
▁heim	-10.276
lar	-10.2771
kü	-10.2776
▁Bar	-10.2784
▁Ta	-10.2787
▁Kirche	-10.2797
▁goodbye	-10.2797
▁Sport	-10.2797
▁Wald	-10.2797
▁Leave	-10.2798
▁weinen	-10.2798
▁pack	-10.28
▁upset	-10.28
▁neun	-10.2801
▁lerne	-10.2811
▁geschlossen	-10.2817
▁dick	-10.282
▁step	-10.2838
▁Herz	-10.2849
gelassen	-10.285
▁walking	-10.2861
▁fit	-10.2867
▁Mos	-10.2878
▁avoid	-10.2889
▁throw	-10.2889
▁forgive	-10.2889
▁Absicht	-10.2889
▁post	-10.289
▁received	-10.2899
▁refused	-10.29
▁smell	-10.2912
eiß	-10.292
▁Now	-10.2929
▁sea	-10.2942
▁ti	-10.295
▁smile	-10.2953
▁yours	-10.2957
▁Brücke	-10.2982
▁gearbeitet	-10.2982
▁remind	-10.2982
▁trinkt	-10.2982
▁Waffe	-10.2982
▁truck	-10.2982
▁nine	-10.2983
▁wake	-10.2984
▁verließ	-10.2986
▁vorstellen	-10.2993
gekommen	-10.3002
buch	-10.3006
▁bird	-10.3006
ker	-10.3006
▁schreibt	-10.3012
▁fishing	-10.302
▁Wolle	-10.3023
▁bath	-10.3053
▁gew	-10.3053
▁discuss	-10.3055
▁mis	-10.3068
▁experience	-10.3075
▁seldom	-10.3075
▁sang	-10.3075
▁leer	-10.3077
▁Make	-10.3078
▁zufällig	-10.3086
▁Leg	-10.3088
▁answered	-10.3088
▁mail	-10.3095
▁finger	-10.3101
M	-10.3106
▁ride	-10.3108
▁learning	-10.3142
▁hole	-10.3154
ile	-10.3165
▁October	-10.3169
▁Oktober	-10.3169
▁feelings	-10.3171
▁Lesen	-10.3172
▁Gehen	-10.3172
rennen	-10.3172
▁meal	-10.3175
▁leihen	-10.3178
▁eher	-10.3188
.30	-10.3195
brechen	-10.3204
▁Geben	-10.3206
▁meant	-10.3258
▁church	-10.3265
▁dunkel	-10.3265
▁nötig	-10.3265
▁studiert	-10.3265
▁übrig	-10.3265
▁Blick	-10.3265
▁orange	-10.3265
▁klingt	-10.3265
▁gesund	-10.3265
stück	-10.3268
▁means	-10.3283
▁Ask	-10.3294
▁brothers	-10.3299
▁watched	-10.335
▁Osaka	-10.3361
▁Rechner	-10.3361
▁entfernt	-10.3361
▁nobody	-10.3361
lehrer	-10.3361
▁Stimmt	-10.3361
▁schrecklich	-10.3361
▁Zucker	-10.3361
▁Amerikaner	-10.3361
del	-10.3362
▁Ex	-10.3368
kla	-10.3372
▁painting	-10.3376
▁Auge	-10.338
▁kid	-10.3401
▁anzu	-10.3407
▁Polizist	-10.3413
für	-10.3413
ual	-10.3416
▁gemein	-10.3457
▁detail	-10.3458
▁Unterschied	-10.3458
▁enemy	-10.3458
▁soccer	-10.3458
▁manchmal	-10.3458
▁grew	-10.3458
▁salt	-10.3458
▁warf	-10.346
▁mu	-10.3462
▁jemandem	-10.3465
▁Gesetz	-10.3473
▁führt	-10.3475
▁extreme	-10.3482
▁rot	-10.3483
▁fi	-10.3484
▁Worte	-10.351
▁findet	-10.3518
form	-10.3524
▁Every	-10.3556
▁foot	-10.3556
▁States	-10.3556
▁drüben	-10.3556
▁immediately	-10.3556
▁pencil	-10.3556
▁purpose	-10.3556
▁Show	-10.3556
cy	-10.3556
▁bike	-10.3556
▁schloss	-10.3556
▁Ne	-10.3561
▁Kleidung	-10.3564
ütze	-10.3569
▁entscheiden	-10.3575
▁fri	-10.3578
bri	-10.3583
▁statt	-10.3586
▁hältst	-10.3592
▁hu	-10.3605
▁erzählte	-10.3605
▁Ei	-10.3619
▁surprise	-10.3627
▁succeed	-10.3636
▁Hi	-10.3637
▁verbracht	-10.3648
▁television	-10.3655
▁Einzige	-10.3655
▁thousand	-10.3655
▁schuldig	-10.3657
hrew	-10.3657
▁Vergi	-10.3657
▁map	-10.3663
▁Isn	-10.3664
▁Nehmen	-10.3669
estens	-10.3672
▁wohne	-10.3676
▁schneller	-10.369
H	-10.369
▁Stell	-10.3721
unk	-10.3723
▁hilft	-10.373
▁schlechter	-10.3735
ium	-10.374
▁Nichts	-10.3746
▁condition	-10.3755
▁Weihnachten	-10.3755
▁irgendetwas	-10.3755
▁stuff	-10.3755
▁Europe	-10.3755
▁respect	-10.3756
▁wiedersehen	-10.3762
zukommen	-10.3778
▁rules	-10.3779
pass	-10.3781
▁pre	-10.3787
selben	-10.3789
▁saved	-10.3794
▁warte	-10.3797
zugehen	-10.3826
▁appear	-10.3837
▁prove	-10.3855
▁Adresse	-10.3856
▁Brüder	-10.3856
▁pünktlich	-10.3856
▁schmeckt	-10.3856
▁verkaufen	-10.3856
▁marry	-10.3856
▁green	-10.3857
änge	-10.3857
▁wallet	-10.3857
zeug	-10.3859
▁unterhalten	-10.3863
▁gold	-10.3863
▁kannte	-10.3865
▁hid	-10.3886
elle	-10.3889
tausend	-10.3894
▁mehrere	-10.3895
▁moved	-10.3908
▁aller	-10.3916
geht	-10.3925
ave	-10.3928
▁Baseball	-10.3931
▁handle	-10.395
gegeben	-10.3952
▁photo	-10.3958
▁slept	-10.3958
▁Something	-10.3958
▁storm	-10.3958
▁Golf	-10.3958
drück	-10.3959
schein	-10.3965
▁Wind	-10.3971
▁einge	-10.3973
weit	-10.3975
▁painted	-10.3978
▁schau	-10.3985
▁Witze	-10.3992
▁danken	-10.3998
▁likely	-10.401
▁Jede	-10.4026
▁rid	-10.4028
▁Tut	-10.4035
ky	-10.405
▁schulde	-10.405
▁Chicago	-10.4061
▁Fuji	-10.4061
▁besorgt	-10.4061
▁Präsident	-10.4061
▁Ziel	-10.4061
▁Gold	-10.4063
▁suddenly	-10.4064
▁hinein	-10.4069
lage	-10.4073
▁hiding	-10.4076
schlagen	-10.408
▁Call	-10.4085
▁woke	-10.4087
▁Bau	-10.4101
▁Nu	-10.4113
▁Rücken	-10.4128
▁Erde	-10.4135
▁attend	-10.4148
über	-10.4152
▁schaute	-10.4156
▁loud	-10.4158
▁richtige	-10.4158
▁Erklärung	-10.4165
▁Erkältung	-10.4165
▁Medikament	-10.4165
▁erinnert	-10.4165
▁gebrochen	-10.4165
▁obvious	-10.4165
▁recently	-10.4165
▁subject	-10.4165
▁aufgehört	-10.4165
▁gewusst	-10.4165
▁information	-10.4165
▁Typ	-10.4165
▁dropped	-10.4166
▁Tages	-10.4166
▁sitzt	-10.4167
▁gun	-10.4169
▁Mannschaft	-10.417
▁arrested	-10.417
▁lack	-10.4171
▁Schreib	-10.4172
▁hinaus	-10.4172
▁bewusst	-10.4174
ndlich	-10.418
▁rauchen	-10.4182
▁vertrauen	-10.4186
▁spiele	-10.419
▁Karte	-10.4192
test	-10.4222
▁decide	-10.4242
▁suggest	-10.425
▁Fische	-10.4256
▁lock	-10.4256
way	-10.4256
▁beliebt	-10.4269
▁favor	-10.427
▁liegen	-10.4271
▁fleißig	-10.4271
▁sugar	-10.4271
▁charge	-10.4271
▁absent	-10.4271
▁verbringen	-10.4275
▁wider	-10.429
▁Welches	-10.4311
ände	-10.4313
▁nun	-10.4334
ahl	-10.4357
▁bear	-10.4361
med	-10.4371
▁draw	-10.4377
▁Vogel	-10.4377
▁explanation	-10.4377
▁somebody	-10.4377
▁kennst	-10.4377
▁aufzu	-10.4378
▁cool	-10.438
▁Muss	-10.4385
▁oben	-10.4385
▁Setz	-10.439
▁flu	-10.4392
▁add	-10.4402
▁unseren	-10.4403
▁returned	-10.4404
▁Gas	-10.4407
▁Meer	-10.4409
reif	-10.441
ami	-10.4415
ary	-10.4428
▁Trink	-10.4439
▁trees	-10.4451
▁agreed	-10.4463
▁holen	-10.4467
▁verändert	-10.4484
▁earlier	-10.4484
▁hängt	-10.4484
▁cream	-10.4485
▁Erfahrung	-10.4485
▁deserve	-10.4485
▁Turn	-10.4485
▁auszu	-10.4488
▁dishes	-10.4489
▁Schulter	-10.4491
▁lucky	-10.4492
stellung	-10.452
▁wollten	-10.4529
▁100	-10.4543
leite	-10.4552
grund	-10.4566
▁blu	-10.4575
▁enter	-10.4583
▁fool	-10.4593
▁appointment	-10.4593
▁perfekt	-10.4593
▁public	-10.4593
▁unbedingt	-10.4593
▁scar	-10.4594
▁zuhause	-10.4594
▁rice	-10.4594
▁Stein	-10.4594
▁keiner	-10.4598
▁dirty	-10.46
▁Uns	-10.4601
▁Mut	-10.4607
vor	-10.461
▁paint	-10.4615
▁Gegend	-10.4615
gefallen	-10.4616
ped	-10.4621
▁spoken	-10.4629
▁Ent	-10.4636
▁Bestes	-10.4638
wand	-10.4639
▁hide	-10.4656
▁Den	-10.4669
▁borrow	-10.4684
▁comp	-10.4685
▁Ba	-10.4688
▁scream	-10.4703
▁Entschuldigung	-10.4703
▁amerikanische	-10.4703
▁grandmother	-10.4703
▁wünsche	-10.4703
▁Gefallen	-10.4703
▁Zeug	-10.4703
▁Mög	-10.4703
▁special	-10.4703
▁golf	-10.4704
▁earth	-10.4705
▁Ru	-10.4708
▁advised	-10.4711
▁aufge	-10.4714
gab	-10.4726
bau	-10.4728
▁rufen	-10.4729
▁lebte	-10.4737
leben	-10.4762
heim	-10.4763
▁Kommen	-10.4773
▁Were	-10.4777
▁bemerkte	-10.4783
ichtet	-10.4795
▁singer	-10.4806
▁complete	-10.4806
▁dran	-10.481
▁Jackson	-10.4814
▁König	-10.4814
▁Stuhl	-10.4814
▁holiday	-10.4814
▁kümmert	-10.4814
▁studied	-10.4814
▁wedding	-10.4814
▁gefangen	-10.4814
▁feet	-10.4814
▁Großmutter	-10.4814
▁scheinen	-10.4815
▁Thema	-10.4816
▁geschlafen	-10.4817
▁trat	-10.482
▁könntest	-10.4825
pped	-10.486
schreiben	-10.4861
▁Dank	-10.4875
iere	-10.4884
▁Ju	-10.4888
hole	-10.489
▁complain	-10.4891
zugeben	-10.4903
▁hold	-10.4912
schnitt	-10.4926
▁Maschine	-10.4927
▁native	-10.4927
▁persönlich	-10.4927
▁suffer	-10.4927
▁gehabt	-10.4927
▁küssen	-10.4927
▁Salz	-10.4927
▁offensichtlich	-10.4927
▁policeman	-10.4929
▁Bein	-10.493
▁Gute	-10.4943
▁clock	-10.4945
▁laughing	-10.4949
▁Nase	-10.4949
▁Flug	-10.496
gegangen	-10.4961
▁twi	-10.4966
▁hundert	-10.4971
▁dressed	-10.4979
pen	-10.4981
▁Kommt	-10.4986
▁kleiner	-10.4997
▁vielen	-10.5002
anz	-10.5003
▁Ohr	-10.5007
▁cap	-10.5022
▁fired	-10.5034
▁Bleistift	-10.504
▁Gemüse	-10.504
▁Pizza	-10.504
▁getötet	-10.504
▁verärgert	-10.504
▁absolutely	-10.504
▁type	-10.504
▁barely	-10.504
▁awake	-10.504
▁button	-10.5041
▁mention	-10.5043
▁pleased	-10.5043
▁slowly	-10.5046
▁Japaner	-10.5048
our	-10.5049
▁dessen	-10.5055
▁zuerst	-10.5056
▁einzu	-10.5061
▁stole	-10.5077
▁unge	-10.5087
▁fly	-10.5088
board	-10.5094
schlag	-10.5105
▁Obst	-10.5108
▁irgendeine	-10.511
nach	-10.5126
▁admit	-10.5154
▁Deutsch	-10.5155
▁Anwalt	-10.5155
▁Politik	-10.5155
▁delicious	-10.5155
▁drove	-10.5155
▁nennen	-10.5155
▁satisfied	-10.5155
▁Erinner	-10.5155
▁Pause	-10.5155
▁verlangt	-10.5156
▁CD	-10.5157
▁lake	-10.5158
▁jedes	-10.5158
icken	-10.5159
▁liar	-10.5161
▁Paar	-10.5162
ible	-10.5163
▁staying	-10.5165
▁Beste	-10.5167
▁impressed	-10.5169
▁mitgebracht	-10.5174
▁locked	-10.5176
▁Gra	-10.518
▁vorher	-10.5181
stelle	-10.5187
▁größte	-10.5192
▁expecting	-10.5194
▁taller	-10.5199
▁Dame	-10.5222
sagen	-10.5222
hören	-10.5238
oc	-10.5239
hap	-10.5243
halb	-10.5265
▁capital	-10.5271
▁Gelegenheit	-10.5271
▁Lösung	-10.5271
▁Selbst	-10.5271
▁chocolate	-10.5271
▁häufig	-10.5271
▁okay	-10.5271
▁support	-10.5271
▁teeth	-10.5271
▁Zieh	-10.5271
▁trank	-10.5271
▁boat	-10.5271
▁Schachtel	-10.5272
▁gemeinsam	-10.5272
sicher	-10.5273
▁Anfang	-10.5273
▁sold	-10.5275
▁Anzug	-10.5275
▁hohe	-10.5277
▁blaue	-10.5279
▁zweimal	-10.5279
ize	-10.5283
▁helping	-10.5287
▁art	-10.5287
zusehen	-10.529
▁zwanzig	-10.5297
werk	-10.5302
▁followed	-10.5302
gu	-10.5323
▁drinks	-10.5323
B	-10.5325
▁Nachbarn	-10.5335
▁earn	-10.5343
▁soup	-10.5346
rger	-10.5353
▁fehlen	-10.5356
▁lächelte	-10.5358
▁Dach	-10.5363
▁verb	-10.5374
traf	-10.5387
xcuse	-10.5388
▁führte	-10.5388
▁Frankreich	-10.5389
▁Manchmal	-10.5389
▁Schluss	-10.5389
▁built	-10.5389
▁gewartet	-10.5389
▁versprochen	-10.5389
▁Gedicht	-10.5389
▁Interesse	-10.5389
▁modern	-10.5389
▁verraten	-10.5389
▁überall	-10.5389
▁France	-10.539
▁bestellt	-10.5392
▁couch	-10.5392
schauen	-10.5396
▁Nachrichten	-10.5397
▁müsste	-10.54
▁weitere	-10.5407
mittel	-10.5417
schmerzen	-10.5422
▁smiled	-10.5425
▁Regeln	-10.5449
▁liebst	-10.5463
▁sisters	-10.5475
▁drop	-10.5508
▁2013	-10.5508
▁beeindruckt	-10.5508
▁body	-10.5508
▁control	-10.5508
▁erlaubt	-10.5508
▁geschickt	-10.5508
▁million	-10.5508
▁twenty	-10.5508
▁Laune	-10.5508
▁history	-10.5508
▁chicken	-10.5508
▁empty	-10.5508
▁wild	-10.5508
▁Hochzeit	-10.5509
▁folgen	-10.5509
karte	-10.5509
▁brave	-10.551
▁Schließ	-10.551
▁entlassen	-10.5512
filled	-10.5513
▁vollkommen	-10.5514
zieh	-10.5519
▁leaves	-10.5522
▁Wollt	-10.5524
▁cause	-10.5534
spielen	-10.5535
▁billig	-10.5539
▁Frag	-10.5539
▁Nur	-10.5541
▁schließen	-10.5556
▁Geht	-10.5564
wert	-10.5605
▁gestellt	-10.5611
▁choose	-10.5629
▁contact	-10.5629
▁license	-10.5629
▁poem	-10.5629
▁member	-10.5629
▁Insel	-10.5631
▁mochte	-10.5631
▁normalerweise	-10.5631
▁Wait	-10.5634
▁Glauben	-10.5643
▁Tat	-10.5646
▁entered	-10.565
▁heat	-10.5667
▁hang	-10.5675
ließ	-10.5683
▁umgehen	-10.5693
asse	-10.5701
▁happening	-10.5704
▁rufe	-10.5709
▁depend	-10.571
▁hasst	-10.5718
▁nächstes	-10.572
▁Leuten	-10.5729
▁cross	-10.5732
▁Ku	-10.5733
▁island	-10.5733
▁Lügner	-10.5751
▁ruin	-10.5751
▁suspect	-10.5751
▁ahead	-10.5751
▁camp	-10.5751
▁entire	-10.5751
▁überzeugt	-10.5751
▁schade	-10.5752
▁speaker	-10.5752
▁pulled	-10.5759
▁dreimal	-10.5762
▁Bilder	-10.5762
▁Taschen	-10.5782
▁zer	-10.5793
ron	-10.5795
▁sooner	-10.5808
gleich	-10.581
▁rede	-10.5848
fro	-10.5857
▁Sicherheit	-10.5868
▁Ac	-10.5872
▁Gefäll	-10.5874
▁Krawatte	-10.5874
▁Regenschirm	-10.5874
▁einkaufen	-10.5874
▁geändert	-10.5874
▁irgendwelche	-10.5874
▁pizza	-10.5874
▁Stock	-10.5874
▁power	-10.5874
▁kosten	-10.5874
geführt	-10.5875
▁exist	-10.5879
▁danach	-10.5879
▁Sprechen	-10.5893
ähne	-10.5904
▁Schlag	-10.592
▁Sorge	-10.5921
keit	-10.5923
igung	-10.5923
▁schönes	-10.5928
▁sucht	-10.5955
▁sollst	-10.5955
▁Sagen	-10.5963
▁suche	-10.5964
ble	-10.5984
▁Autos	-10.5994
▁courage	-10.5998
▁custom	-10.5999
▁Krankheit	-10.5999
▁Suppe	-10.5999
▁harm	-10.5999
▁share	-10.5999
ehrt	-10.6007
▁junge	-10.6008
name	-10.6023
▁käme	-10.6024
▁imagine	-10.6033
▁versuche	-10.6047
wort	-10.6052
▁führen	-10.6058
ham	-10.6063
▁unten	-10.6075
▁belong	-10.609
▁interest	-10.6093
▁französische	-10.6108
▁schöner	-10.6108
▁legs	-10.6114
schrift	-10.6118
zubringen	-10.612
▁mom	-10.6124
▁Steuer	-10.6126
▁injured	-10.6126
▁versprach	-10.6126
▁Stay	-10.6126
▁ashamed	-10.6126
▁pair	-10.6126
▁worst	-10.6126
▁held	-10.613
▁gelang	-10.6133
▁herunter	-10.6136
▁cards	-10.6137
sport	-10.6139
▁vegetables	-10.6146
▁Bad	-10.615
▁single	-10.6151
steigen	-10.6152
▁willing	-10.618
▁ordered	-10.6192
▁Rad	-10.6193
auer	-10.6193
▁Reich	-10.6195
▁missing	-10.6201
▁Monate	-10.6208
▁wore	-10.6217
▁convince	-10.6225
▁Herr	-10.6237
recht	-10.6248
▁ear	-10.6249
▁Sturm	-10.6254
▁account	-10.6254
▁behandelt	-10.6254
▁rude	-10.6254
▁distance	-10.6254
▁countries	-10.6254
▁überzeugen	-10.6254
▁fear	-10.6254
▁calm	-10.6254
▁betrat	-10.6255
giving	-10.6255
▁headache	-10.6255
▁lachen	-10.6257
▁beibringen	-10.6259
▁Zum	-10.6259
▁übersetzen	-10.6261
▁Koch	-10.6267
▁wise	-10.628
▁plays	-10.6284
▁schwarz	-10.6295
▁area	-10.6309
▁Schreiben	-10.631
▁cute	-10.6338
ehl	-10.6338
▁rule	-10.6352
▁Geb	-10.6363
▁ehe	-10.6371
▁recommend	-10.6384
▁schüchtern	-10.6384
▁behavior	-10.6384
▁langweilig	-10.6384
▁tatsächlich	-10.6384
▁vertraut	-10.6384
▁cousin	-10.6384
▁fressen	-10.6384
▁bored	-10.6384
▁damage	-10.6384
▁Kunst	-10.6384
▁retten	-10.6385
▁Zähne	-10.6385
▁Zahl	-10.6385
▁handelt	-10.6385
▁saßen	-10.6388
schoss	-10.6396
▁seriously	-10.64
▁Soldaten	-10.64
▁reached	-10.6402
▁allow	-10.6404
▁stick	-10.6405
machen	-10.642
out	-10.6432
▁tu	-10.6433
▁nochmal	-10.6434
▁heißen	-10.6435
▁listened	-10.6453
▁erhalten	-10.6461
▁einsam	-10.6471
ged	-10.6474
▁Karten	-10.6482
▁hübsch	-10.6487
ecke	-10.6494
▁flower	-10.6495
▁Ch	-10.6501
▁Versteh	-10.6502
▁intend	-10.6505
▁reach	-10.6514
▁peace	-10.6515
▁sharp	-10.6515
▁Children	-10.6515
▁Tatsache	-10.6515
▁Brauch	-10.6515
▁Bäume	-10.6515
▁Sänger	-10.6515
▁shy	-10.6515
▁Europa	-10.6516
▁classroom	-10.6516
▁gefiel	-10.6516
▁Wichtig	-10.6517
▁Drei	-10.6521
▁forgotten	-10.6532
▁raised	-10.6536
▁rose	-10.6537
laufen	-10.6538
▁geblieben	-10.6542
▁hob	-10.6542
▁Waren	-10.6548
ric	-10.6551
▁vermissen	-10.6561
▁Tode	-10.6562
▁Rück	-10.6562
ized	-10.6563
fte	-10.6573
▁fan	-10.6574
▁fliegen	-10.6576
▁Ach	-10.6577
rin	-10.6584
lig	-10.6585
hnen	-10.6597
▁mach	-10.6599
▁schwarze	-10.6606
▁heiße	-10.662
▁result	-10.662
▁lese	-10.6638
▁Schön	-10.6648
▁Vögel	-10.6649
▁private	-10.6649
▁schmutzig	-10.6649
▁verwirrt	-10.6649
▁äußerst	-10.6649
▁innocent	-10.6649
▁sprang	-10.6649
▁Alice	-10.6649
▁adopt	-10.6649
▁repeat	-10.6649
▁shoot	-10.6649
▁Punkt	-10.6649
▁club	-10.665
▁Steh	-10.6652
▁drank	-10.6654
▁Such	-10.6654
▁jail	-10.6656
▁moon	-10.6658
▁küsste	-10.6659
▁interessante	-10.6676
▁record	-10.6679
▁ertragen	-10.6683
▁total	-10.6685
▁washed	-10.6686
▁log	-10.6687
▁lebe	-10.6692
▁washing	-10.6698
▁wenige	-10.671
▁wären	-10.6711
▁schaut	-10.6719
▁Of	-10.6719
▁geb	-10.673
ork	-10.6738
▁stimmte	-10.6751
▁sag	-10.6757
▁faster	-10.6777
▁calling	-10.6782
▁Treppe	-10.6784
▁advantage	-10.6784
▁behaupte	-10.6784
▁crime	-10.6784
▁museum	-10.6784
▁passport	-10.6784
▁straight	-10.6784
▁sports	-10.6785
▁flight	-10.6785
▁Schritt	-10.6789
▁anyway	-10.679
▁rock	-10.6791
lud	-10.6797
▁ground	-10.68
▁Mond	-10.6806
▁duty	-10.6818
▁nu	-10.6829
▁Fahren	-10.6861
▁eng	-10.688
▁Fro	-10.6896
▁low	-10.6911
druck	-10.6918
▁Führerschein	-10.6921
▁Museum	-10.6921
▁confused	-10.6921
▁gewählt	-10.6921
▁solution	-10.6921
▁vermisst	-10.6921
▁Italien	-10.6921
▁improve	-10.6921
▁lady	-10.6921
▁teure	-10.6921
▁bench	-10.6925
unter	-10.6929
▁beeilen	-10.6937
gesehen	-10.695
▁Ja	-10.6952
▁demand	-10.6957
▁versteckt	-10.6965
▁wär	-10.6973
▁müsse	-10.6981
▁Ti	-10.6987
▁Ehe	-10.6987
▁aufgeben	-10.6991
gemacht	-10.6996
▁God	-10.7013
ward	-10.7016
bringen	-10.7025
oh	-10.7033
setzen	-10.7047
▁anderer	-10.7055
▁Friday	-10.706
▁Getränk	-10.706
▁Hawaii	-10.706
▁Medizin	-10.706
▁collect	-10.706
▁drug	-10.706
▁lehnte	-10.706
▁proposal	-10.706
▁Watch	-10.706
▁project	-10.706
▁weigerte	-10.706
▁match	-10.706
zimmer	-10.706
▁human	-10.706
▁size	-10.7061
▁entlang	-10.7062
▁Lauf	-10.7063
▁habit	-10.7064
▁wonderful	-10.7065
▁Two	-10.7065
▁math	-10.7065
▁davor	-10.7066
▁Gott	-10.7068
▁Schach	-10.7075
ities	-10.7075
▁nieder	-10.7078
▁Lernen	-10.708
▁results	-10.7089
▁caused	-10.7094
▁trinke	-10.7122
▁zuvor	-10.7134
▁ausgehen	-10.7142
last	-10.7143
▁Schmerz	-10.7155
zustellen	-10.7155
▁Kra	-10.7162
▁pan	-10.7162
▁rote	-10.7166
getan	-10.7173
▁drin	-10.7175
getragen	-10.7179
folge	-10.7182
pfen	-10.7189
▁beat	-10.719
▁Weil	-10.72
▁Knopf	-10.72
▁Regierung	-10.72
▁Tränen	-10.72
▁Vertrag	-10.72
▁author	-10.72
▁beobachtet	-10.72
▁geküsst	-10.72
▁group	-10.72
▁täglich	-10.72
platz	-10.72
▁gelogen	-10.72
▁Cousin	-10.72
▁dringend	-10.72
▁chess	-10.7201
▁serve	-10.7201
▁president	-10.7201
▁guilty	-10.7203
▁stamp	-10.7203
▁liebte	-10.7207
▁damals	-10.7214
▁Gefühl	-10.7223
▁healthy	-10.7223
▁prepared	-10.7227
▁Schwestern	-10.7229
▁ankommen	-10.723
▁arbeitete	-10.7235
gebracht	-10.7238
▁Seit	-10.7244
cent	-10.7247
▁explained	-10.7251
▁spare	-10.7256
▁ansehen	-10.7271
K	-10.7279
bring	-10.7291
▁gek	-10.7308
▁escape	-10.7315
▁invite	-10.7315
N	-10.7326
▁rang	-10.7335
▁Briefe	-10.7338
▁passen	-10.7339
▁Mu	-10.734
▁getrunken	-10.7343
▁irgendwie	-10.7343
▁magazine	-10.7343
▁unschuldig	-10.7343
▁fresh	-10.7343
▁roof	-10.7343
▁Orange	-10.7343
▁geraten	-10.7343
▁Sterne	-10.7343
▁verschwende	-10.7344
▁bereue	-10.7344
▁diary	-10.7344
lichkeit	-10.7346
▁beigebracht	-10.7349
▁lasse	-10.7351
▁covered	-10.7351
▁entschlossen	-10.7357
▁verspreche	-10.7363
▁hübsche	-10.7374
▁Americans	-10.7407
▁bekomme	-10.741
▁Nachbar	-10.7413
▁keeps	-10.7416
wagen	-10.743
▁aufhalten	-10.7434
▁Nachde	-10.7438
▁Sha	-10.744
▁remain	-10.7469
▁burn	-10.747
▁slow	-10.748
wechsel	-10.7487
rush	-10.7488
abhängig	-10.7488
▁Früher	-10.7488
▁dancing	-10.7488
▁document	-10.7488
▁government	-10.7488
▁population	-10.7488
▁streng	-10.7488
▁unhöflich	-10.7488
▁pool	-10.7488
▁Hinter	-10.7488
▁stone	-10.7489
▁beginnen	-10.7489
▁artist	-10.7491
▁hung	-10.7492
▁gehören	-10.7492
▁unterrichte	-10.7497
▁jumped	-10.7505
▁jokes	-10.7522
▁Tier	-10.7524
▁Lehrerin	-10.7525
▁bestehen	-10.7544
▁reisen	-10.7544
▁stranger	-10.7545
Tom	-10.7573
▁Hose	-10.7576
▁ended	-10.7579
▁beschloss	-10.759
▁bereitet	-10.7599
▁luck	-10.7626
▁except	-10.7633
freund	-10.7635
▁Groß	-10.7635
▁Mitglied	-10.7635
▁Geduld	-10.7635
▁Gepäck	-10.7635
▁Hälfte	-10.7635
▁Internet	-10.7635
▁Reihe	-10.7635
▁Richtung	-10.7635
▁Yesterday	-10.7635
▁bekommt	-10.7635
▁dankbar	-10.7635
▁einverstanden	-10.7635
▁geliebt	-10.7635
▁gewöhnt	-10.7635
▁sprichst	-10.7635
▁prevent	-10.7635
▁stairs	-10.7635
▁Lüge	-10.7635
▁engine	-10.7636
▁riet	-10.764
▁Holz	-10.764
▁India	-10.764
▁page	-10.7642
▁erreicht	-10.7643
▁neuer	-10.7651
▁welcher	-10.7659
▁fühlen	-10.7662
▁using	-10.7663
▁dad	-10.7667
▁gri	-10.7692
▁sho	-10.7708
▁fle	-10.771
▁Mode	-10.7717
uff	-10.7744
zuhalten	-10.7752
uz	-10.7762
▁cheap	-10.7762
▁repair	-10.7766
zäh	-10.7779
satz	-10.7784
▁Dokument	-10.7785
▁Freitag	-10.7785
▁Kühlschrank	-10.7785
▁Nächste	-10.7785
▁Saturday	-10.7785
▁Spaziergang	-10.7785
▁aussieht	-10.7785
▁erfolgreich	-10.7785
▁streiten	-10.7785
▁third	-10.7785
▁understood	-10.7785
▁university	-10.7785
▁zählen	-10.7785
▁saving	-10.7785
▁trick	-10.7785
▁Klein	-10.7785
▁stuck	-10.7785
▁zahlen	-10.7785
▁sofa	-10.7785
▁Mord	-10.7785
▁cho	-10.7786
▁Hals	-10.7786
▁stra	-10.7786
▁forced	-10.7786
▁beginnt	-10.7787
▁hall	-10.7787
▁buying	-10.7801
▁Kauf	-10.7808
▁Schwimmen	-10.7818
▁grün	-10.7819
▁steckte	-10.7827
▁waschen	-10.7832
▁Schmerzen	-10.7833
▁Fahrer	-10.7837
▁rate	-10.7839
▁lautet	-10.7844
▁believed	-10.7858
fang	-10.7863
▁par	-10.7865
▁forever	-10.7873
▁Versuche	-10.7874
▁losing	-10.7879
▁letters	-10.7886
▁Beine	-10.789
▁Last	-10.7892
▁geh	-10.7902
▁kurze	-10.7905
Y	-10.7926
▁neighbor	-10.7926
▁Gesellschaft	-10.7936
▁Gespräch	-10.7936
▁Langsam	-10.7936
▁beinahe	-10.7936
▁jealous	-10.7936
▁major	-10.7936
▁middle	-10.7936
▁sandwich	-10.7936
▁silent	-10.7936
▁Alkohol	-10.7936
▁Pläne	-10.7936
▁befreundet	-10.7936
▁Streit	-10.7936
▁Durch	-10.7937
▁tears	-10.7937
▁involved	-10.7939
▁Never	-10.794
▁pity	-10.7943
▁verbrachte	-10.7948
▁suchte	-10.7949
▁umgebracht	-10.795
▁anscheinend	-10.7961
▁convinced	-10.797
▁fed	-10.7985
P	-10.7997
▁ruf	-10.7999
▁badly	-10.8004
bil	-10.8009
schlafen	-10.8023
▁cop	-10.8033
▁abzu	-10.8035
▁hurts	-10.8051
▁smells	-10.8052
ativ	-10.8054
▁Monaten	-10.8064
▁fail	-10.8071
▁wärest	-10.8073
▁besuchte	-10.8082
▁Augenblick	-10.809
▁Frühling	-10.809
▁Gerücht	-10.809
▁Körper	-10.809
▁Projekt	-10.809
▁Stift	-10.809
▁blöd	-10.809
▁excited	-10.809
▁require	-10.809
▁vermutlich	-10.809
▁ähnlich	-10.809
▁Zweifel	-10.809
▁cheese	-10.809
▁lonely	-10.809
▁beantwortet	-10.809
▁Hauptstadt	-10.809
▁rarely	-10.809
▁Life	-10.809
▁drinnen	-10.809
▁steal	-10.809
▁Boot	-10.809
▁schafft	-10.809
▁miles	-10.8091
▁kocht	-10.8091
▁brush	-10.8092
▁faul	-10.8093
▁plent	-10.8093
▁yes	-10.8093
▁Freundschaft	-10.8095
▁Weise	-10.8095
innen	-10.8107
bung	-10.8133
▁wette	-10.8143
▁Male	-10.8146
▁Decke	-10.8148
▁sw	-10.8153
▁soldiers	-10.8165
▁Regel	-10.8175
▁Preise	-10.8189
▁freuen	-10.8198
raum	-10.8232
licherweise	-10.8243
▁object	-10.8245
züglich	-10.8246
▁April	-10.8246
▁Termin	-10.8246
▁particular	-10.8246
▁relax	-10.8246
▁Elke	-10.8246
▁englische	-10.8246
▁cried	-10.8246
ified	-10.8246
▁Folge	-10.8246
▁Hallo	-10.8246
▁Natur	-10.8246
▁lügen	-10.8246
▁erwarte	-10.8248
▁lesson	-10.8253
▁dep	-10.8253
▁sweater	-10.8259
rade	-10.826
▁Pro	-10.8269
▁geschlagen	-10.8288
▁film	-10.8289
ffne	-10.8305
▁Trinken	-10.8312
▁Tor	-10.832
▁Wiss	-10.8327
ziel	-10.8328
schließen	-10.8341
plan	-10.8342
▁tend	-10.8353
▁Straßen	-10.8354
▁king	-10.8362
▁leise	-10.8383
▁lass	-10.8401
▁embarrass	-10.8405
▁Artikel	-10.8405
▁Füße	-10.8405
▁Gruppe	-10.8405
▁Schokolade	-10.8405
▁cloud	-10.8405
▁contract	-10.8405
▁fängt	-10.8405
▁article	-10.8405
▁erledigt	-10.8405
▁weapon	-10.8405
▁links	-10.8405
▁näher	-10.8405
▁Wusste	-10.8405
▁boring	-10.8405
▁fond	-10.8405
▁Gericht	-10.8405
▁permission	-10.8405
▁hill	-10.8405
▁bestanden	-10.8406
▁alarm	-10.8406
▁aware	-10.8406
▁bedroom	-10.8406
▁Aussicht	-10.8406
nahm	-10.8407
▁Zahn	-10.8407
▁absichtlich	-10.8408
▁Verbrechen	-10.8408
▁cookies	-10.841
▁Verhalten	-10.8412
▁Loch	-10.8414
▁totally	-10.8418
▁alter	-10.8421
▁weak	-10.8434
▁considered	-10.8444
ffentlich	-10.8445
▁roll	-10.8453
▁Cha	-10.8462
▁schätzen	-10.8464
▁liebsten	-10.8466
▁carrie	-10.8467
▁Ohren	-10.8469
▁card	-10.8473
▁wolltest	-10.8487
▁Keine	-10.8489
hundert	-10.8497
kommst	-10.8503
▁reichen	-10.8512
lief	-10.8519
▁Rest	-10.8534
Wo	-10.8541
▁schlimm	-10.8543
▁Halt	-10.8549
▁halbe	-10.8559
▁Erdbeben	-10.8566
▁Gleiche	-10.8566
▁admire	-10.8566
▁aufgewachsen	-10.8566
▁comfortable	-10.8566
▁excellent	-10.8566
▁persuade	-10.8566
▁poison	-10.8566
▁verantwortlich	-10.8566
▁zoo	-10.8566
system	-10.8566
▁Käse	-10.8566
▁rumor	-10.8566
▁erneut	-10.8566
▁Mehr	-10.8567
▁yellow	-10.8567
▁Help	-10.8567
fälle	-10.8567
▁Ansicht	-10.8568
▁jener	-10.8568
▁eben	-10.8569
▁Schlange	-10.8572
▁graduated	-10.8578
▁Sand	-10.8581
▁huge	-10.8599
▁Beweis	-10.8601
▁chose	-10.8603
print	-10.8615
▁nose	-10.8621
▁falls	-10.8631
▁Dieb	-10.8649
gelaufen	-10.8658
fertig	-10.8668
▁lachte	-10.8684
▁officer	-10.8685
▁handed	-10.8698
▁woods	-10.8708
▁jump	-10.8711
unterricht	-10.8721
▁Wohn	-10.8722
▁Fremdsprache	-10.873
▁amount	-10.873
▁conversation	-10.873
▁fifteen	-10.873
▁fließend	-10.873
▁gebraucht	-10.873
▁heiratete	-10.873
▁komisch	-10.873
▁köstlich	-10.873
▁nachgedacht	-10.873
▁natural	-10.873
▁resign	-10.873
▁schenkte	-10.873
▁thief	-10.873
▁zerstört	-10.873
▁nachdenken	-10.873
▁Sorry	-10.873
▁irgendwas	-10.873
▁shave	-10.873
▁Sometimes	-10.873
▁gewiss	-10.873
▁intention	-10.873
▁assume	-10.873
▁Nummer	-10.8731
▁discover	-10.8731
▁geschah	-10.8731
▁Kopfschmerzen	-10.8731
flug	-10.8731
▁cancer	-10.8731
▁freut	-10.8731
▁excuse	-10.8732
▁Tante	-10.8733
▁theater	-10.8735
▁Zeitschrift	-10.8738
▁Read	-10.8738
sichtig	-10.8748
▁frag	-10.875
▁express	-10.8755
▁besprechen	-10.8758
yon	-10.8762
▁teilte	-10.8767
will	-10.8769
▁antworten	-10.8776
ama	-10.8777
▁judge	-10.8782
rö	-10.8787
▁trusted	-10.8805
nahme	-10.8818
▁prisoner	-10.8823
▁Weile	-10.8823
▁Pferde	-10.8833
band	-10.8861
▁cab	-10.8873
▁begegnet	-10.8878
▁attack	-10.8879
reisen	-10.8884
▁blau	-10.8894
uhr	-10.8896
berraschung	-10.8897
▁Chinesisch	-10.8897
▁Gewicht	-10.8897
▁Lincoln	-10.8897
▁Richtige	-10.8897
▁familiar	-10.8897
▁gerettet	-10.8897
▁praktisch	-10.8897
▁thirsty	-10.8897
▁wählen	-10.8897
▁riecht	-10.8897
▁Zoo	-10.8897
▁extra	-10.8897
▁iron	-10.8897
▁polite	-10.8897
▁shelf	-10.8897
▁spell	-10.8898
▁mutig	-10.8898
▁knapp	-10.8898
▁irre	-10.8899
▁admitted	-10.8899
▁suggestion	-10.89
▁sand	-10.89
▁shock	-10.89
▁unrecht	-10.8901
▁Star	-10.8905
uit	-10.8906
▁oil	-10.8906
eshalb	-10.8907
▁aunt	-10.8907
▁zustimmen	-10.891
▁complaining	-10.8918
▁suggested	-10.8927
▁Test	-10.8931
▁following	-10.8931
▁Kau	-10.8932
▁zumute	-10.8936
unwahrscheinlich	-10.8954
▁Einer	-10.899
mpel	-10.8998
▁paying	-10.9006
▁größten	-10.9012
▁wichtige	-10.9023
▁behalten	-10.9024
▁bringe	-10.9025
▁Send	-10.9027
▁Teller	-10.904
ichten	-10.9049
▁solch	-10.906
▁Geräusch	-10.9066
▁curious	-10.9066
▁earthquake	-10.9066
▁erschöpft	-10.9066
▁geredet	-10.9066
▁geöffnet	-10.9066
▁patience	-10.9066
▁product	-10.9066
▁stomach	-10.9066
▁Somebody	-10.9066
▁angelogen	-10.9066
▁crash	-10.9066
▁schedule	-10.9066
▁view	-10.9066
▁Beziehung	-10.9066
▁beschwert	-10.9066
▁search	-10.9066
▁verboten	-10.9066
▁behave	-10.9067
▁sorgen	-10.9067
▁imagination	-10.9067
▁lift	-10.9068
▁Korea	-10.9068
▁Tagebuch	-10.9068
▁crowd	-10.9069
▁nein	-10.9069
▁nass	-10.9077
▁Ski	-10.9078
▁Millionen	-10.9095
▁treated	-10.9102
▁unterscheiden	-10.911
▁accepted	-10.9117
▁Pla	-10.9128
▁Arbeiter	-10.9137
▁starting	-10.9162
G	-10.9175
▁schreibe	-10.9177
▁birds	-10.9193
▁weinte	-10.9199
rüh	-10.9207
▁suppose	-10.921
▁Fast	-10.9211
▁yell	-10.9238
▁Facebook	-10.9239
▁Harvard	-10.9239
▁Kanada	-10.9239
▁Kartoffel	-10.9239
▁Supermarkt	-10.9239
▁begleiten	-10.9239
▁furniture	-10.9239
▁geliehen	-10.9239
▁idiot	-10.9239
▁midnight	-10.9239
▁nützlich	-10.9239
▁practice	-10.9239
▁recover	-10.9239
▁supermarket	-10.9239
▁Regal	-10.9239
▁course	-10.9239
▁memory	-10.9239
▁Canada	-10.9239
▁abends	-10.924
▁moving	-10.924
▁Kerl	-10.9241
▁Lachen	-10.9244
▁Bal	-10.9245
▁stars	-10.9245
▁Leid	-10.9249
▁neighbors	-10.925
▁animal	-10.9251
spieler	-10.9262
och	-10.9268
light	-10.927
ierten	-10.9273
▁discussed	-10.9273
▁pretending	-10.9275
lent	-10.9286
▁ears	-10.9319
▁meaning	-10.9319
▁Lieder	-10.9321
▁Mark	-10.9323
▁Minute	-10.9336
▁mitnehmen	-10.9336
▁Neu	-10.9339
bleiben	-10.934
▁Ky	-10.9358
zog	-10.9369
▁pol	-10.9379
▁Fotos	-10.9391
▁quick	-10.9406
▁erkälte	-10.9414
▁Aufmerksamkeit	-10.9414
▁Three	-10.9414
▁advance	-10.9414
▁gestrichen	-10.9414
▁gezwungen	-10.9414
▁höflich	-10.9414
▁juice	-10.9414
▁verletzen	-10.9414
▁vorbereitet	-10.9414
▁Frieden	-10.9414
▁Klassenzimmer	-10.9414
▁erwischt	-10.9414
▁shall	-10.9414
▁bright	-10.9414
▁vergangen	-10.9414
▁deswegen	-10.9414
▁hofft	-10.9414
▁eingeschlafen	-10.9414
▁market	-10.9415
▁Schlafzimmer	-10.9415
▁besitzt	-10.9415
▁wisst	-10.9415
▁sauer	-10.9416
▁erkannte	-10.9416
▁fangen	-10.9417
▁fühlt	-10.9421
▁pie	-10.9437
sprechen	-10.9453
▁zurückkommen	-10.9459
▁Kekse	-10.946
▁offered	-10.9461
No	-10.9472
▁Spielen	-10.9477
▁gehalten	-10.9493
▁band	-10.9494
▁sleepy	-10.9494
▁wohnte	-10.9507
▁Ki	-10.9519
▁200	-10.9524
▁state	-10.9526
gesetzt	-10.9529
glück	-10.9549
Nein	-10.9554
gehalten	-10.9565
▁eurer	-10.9579
wür	-10.958
▁tax	-10.9584
000	-10.9587
▁Weihnachts	-10.9593
▁Armbanduhr	-10.9593
▁Risiko	-10.9593
▁disease	-10.9593
▁dürft	-10.9593
▁examination	-10.9593
▁geschieht	-10.9593
▁jacket	-10.9593
▁unlikely	-10.9593
▁verursacht	-10.9593
▁guest	-10.9593
▁scharf	-10.9593
▁Wäre	-10.9593
▁holte	-10.9593
▁aufpassen	-10.9593
▁scheinst	-10.9593
▁obey	-10.9594
▁prize	-10.9596
▁rope	-10.9596
▁Dafür	-10.9597
▁knee	-10.9597
wende	-10.9597
▁debt	-10.9597
▁sum	-10.9604
hal	-10.9611
▁coin	-10.9613
▁gebaut	-10.9614
▁schlimmer	-10.9618
▁schlechten	-10.9622
tasche	-10.9639
▁checked	-10.9642
▁Gehör	-10.9644
▁denied	-10.9647
▁beschlossen	-10.9648
feier	-10.9649
ständ	-10.9675
▁friendly	-10.9675
▁Hilf	-10.9691
▁board	-10.9693
▁helfe	-10.9696
fassen	-10.9711
C	-10.9712
bereit	-10.9714
racht	-10.9741
▁lead	-10.9743
gged	-10.9744
▁raise	-10.9746
▁gezogen	-10.9751
▁push	-10.9758
▁Berge	-10.9766
verschwendung	-10.9774
▁Dunkelheit	-10.9774
▁Erlaubnis	-10.9774
▁Künstler	-10.9774
▁Methode	-10.9774
▁Pullover	-10.9774
▁Verspätung	-10.9774
▁castle	-10.9774
▁easier	-10.9774
▁effort	-10.9774
▁erwähnt	-10.9774
▁neither	-10.9774
▁responsible	-10.9774
▁thirteen	-10.9774
▁unglaublich	-10.9774
▁expert	-10.9775
▁temperature	-10.9775
▁slight	-10.9776
▁sink	-10.9778
▁Eindruck	-10.9778
▁ebenso	-10.9779
▁Kindheit	-10.978
▁wiederzusehen	-10.978
ummer	-10.9781
▁Netz	-10.9782
▁umbringen	-10.9792
▁tire	-10.9792
▁gelb	-10.9792
▁race	-10.9796
▁Neuigkeiten	-10.9797
▁borrowed	-10.9806
▁position	-10.9807
by	-10.9815
▁medi	-10.982
▁belongs	-10.9826
wunde	-10.9835
▁kalte	-10.9838
▁zurecht	-10.9858
möglich	-10.9893
haben	-10.9895
E	-10.9897
▁nurse	-10.9903
▁forest	-10.9924
▁legen	-10.9939
▁Armen	-10.994
▁nachts	-10.9941
▁toward	-10.9947
▁absolut	-10.996
definitely	-10.996
▁Führ	-10.996
▁Lächeln	-10.996
▁Mathematik	-10.996
▁Mitternacht	-10.996
▁Träume	-10.996
▁confirm	-10.996
▁illegal	-10.996
▁joking	-10.996
▁neugierig	-10.996
▁schwimmt	-10.996
▁urgent	-10.996
▁Befehl	-10.996
▁Butter	-10.996
▁Should	-10.996
▁lazy	-10.996
▁dying	-10.996
▁geschenkt	-10.996
▁organ	-10.996
▁bomb	-10.996
▁adult	-10.996
▁failure	-10.996
▁Dürf	-10.996
▁season	-10.996
▁bewegen	-10.996
▁hörst	-10.996
▁Abschluss	-10.996
▁Bord	-10.9961
▁clever	-10.9961
▁entkommen	-10.997
▁stellt	-10.9973
▁warned	-10.9979
▁wood	-10.9986
▁attended	-10.9993
▁fighting	-10.9996
▁Gehst	-11.0003
cient	-11.0006
▁Si	-11.0015
preis	-11.0029
empt	-11.0035
lauf	-11.0052
▁hop	-11.0062
▁bleibe	-11.007
bild	-11.007
F	-11.0086
▁Gegen	-11.0123
▁schrie	-11.0124
▁Par	-11.0125
▁erklärte	-11.0135
nimm	-11.0144
riff	-11.0148
▁Wörter	-11.0148
▁Haupt	-11.0148
▁Besprechung	-11.0148
▁Verkehr	-11.0148
▁Zahnarzt	-11.0148
▁gebacken	-11.0148
▁Fabrik	-11.0148
▁Möbel	-11.0148
▁available	-11.0148
▁brown	-11.0148
▁buried	-11.0148
▁erfreut	-11.0148
▁interrupt	-11.0148
▁schickte	-11.0148
▁similar	-11.0148
▁stories	-11.0148
▁upstairs	-11.0148
▁verdienen	-11.0148
▁Anruf	-11.0148
▁regard	-11.0148
▁Hitze	-11.0148
▁pound	-11.0148
▁Zweck	-11.0148
▁Gäste	-11.0148
▁Schwarz	-11.0148
▁Write	-11.0148
▁direkt	-11.0149
▁aufzustehen	-11.0149
▁neck	-11.0149
▁above	-11.0149
▁Hokkaido	-11.015
▁protest	-11.015
▁hereinkommen	-11.0152
▁Rolle	-11.0153
▁fever	-11.0157
▁useful	-11.0157
▁Jacke	-11.0159
▁removed	-11.0161
▁Geist	-11.0161
▁beendet	-11.0163
▁ausgegangen	-11.0172
▁burned	-11.0173
▁schicken	-11.0181
▁Tro	-11.0186
▁escaped	-11.0186
▁300	-11.0206
▁traveling	-11.0208
▁lauter	-11.021
▁file	-11.023
▁hassen	-11.0237
▁Dem	-11.029
▁scare	-11.0306
▁sur	-11.0316
▁impress	-11.032
▁Garage	-11.0341
▁Muttersprachler	-11.0341
▁Spanish	-11.0341
▁Verkehrsunfall	-11.0341
▁destroyed	-11.0341
▁diamond	-11.0341
▁elevator	-11.0341
▁erhielt	-11.0341
▁funktionieren	-11.0341
▁ghost	-11.0341
▁lächeln	-11.0341
▁natürlich	-11.0341
▁repariert	-11.0341
▁corner	-11.0341
▁zwölf	-11.0341
▁super	-11.0341
▁reply	-11.0341
▁photograph	-11.0341
▁hobby	-11.0341
▁Theater	-11.0342
▁hinunter	-11.0344
▁Zufall	-11.0344
▁Tanz	-11.0347
▁careless	-11.0347
▁garage	-11.0348
verständlich	-11.0349
▁main	-11.0355
abend	-11.0358
▁hervor	-11.036
▁flying	-11.0365
▁Bin	-11.0368
▁drehte	-11.0371
▁weigh	-11.0383
▁fixed	-11.0385
▁Su	-11.0394
▁Fass	-11.0396
hof	-11.0417
▁steigen	-11.0438
▁weder	-11.0458
▁ziehe	-11.0459
▁versteckte	-11.0473
O	-11.0473
coming	-11.0474
▁Werde	-11.048
etz	-11.0497
▁sprachen	-11.0502
aking	-11.0506
▁Sit	-11.0512
hile	-11.052
▁Diamant	-11.0537
▁disagree	-11.0537
▁snake	-11.0537
▁Mahlzeit	-11.0537
▁Mobiltelefon	-11.0537
▁Shakespeare	-11.0537
▁Spiegel	-11.0537
▁Verbindung	-11.0537
▁contain	-11.0537
▁erwachsen	-11.0537
▁gelöst	-11.0537
▁interpret	-11.0537
▁neighborhood	-11.0537
▁salary	-11.0537
▁suicide	-11.0537
▁themselves	-11.0537
▁verspäten	-11.0537
▁claim	-11.0537
▁Schaden	-11.0537
▁schneit	-11.0537
▁burst	-11.0537
▁Mathe	-11.0537
▁Schloss	-11.0537
▁Genie	-11.0537
▁schäme	-11.0537
▁email	-11.0537
▁pond	-11.0538
▁dreizehn	-11.0539
▁linke	-11.0541
▁Miete	-11.0541
▁cell	-11.0541
▁geheim	-11.0543
▁hinauf	-11.0546
▁attacked	-11.0559
▁remained	-11.0562
▁lay	-11.057
▁complained	-11.057
fach	-11.0573
▁appeared	-11.0573
▁sort	-11.0581
▁bemerkt	-11.0593
▁interessieren	-11.0593
▁Kein	-11.0594
▁gesetzt	-11.0607
▁Ring	-11.0633
▁gain	-11.0644
▁lately	-11.0649
▁stehe	-11.0657
J	-11.0678
Das	-11.0679
gefahren	-11.0691
▁hero	-11.0699
▁hearing	-11.0703
▁rained	-11.0706
▁Schal	-11.0707
▁accu	-11.0736
▁Pflicht	-11.0737
▁Zigarette	-11.0737
▁approve	-11.0737
▁aufgeregt	-11.0737
▁cigarette	-11.0737
▁critic	-11.0737
▁effect	-11.0737
▁eifersüchtig	-11.0737
▁elected	-11.0737
▁energy	-11.0737
▁entdeckt	-11.0737
▁erfunden	-11.0737
▁verspätet	-11.0737
▁verstehst	-11.0737
▁website	-11.0737
▁aufgestanden	-11.0737
▁handsome	-11.0737
▁übersetzt	-11.0737
▁Fieber	-11.0737
▁Video	-11.0737
▁video	-11.0737
▁accused	-11.0737
▁tanzt	-11.0737
▁Beeil	-11.0738
▁Vorstellung	-11.0739
▁angeln	-11.0739
▁pour	-11.074
▁dentist	-11.0741
▁fünfzig	-11.0741
▁Neues	-11.0748
▁erklärt	-11.0752
▁Schwimm	-11.0755
▁Nie	-11.0756
▁farm	-11.0761
▁continued	-11.0762
▁wärst	-11.0777
▁erkennen	-11.0782
▁hilf	-11.0787
▁begab	-11.0794
▁langsamer	-11.0809
▁Seil	-11.0814
▁gate	-11.0819
▁Dienst	-11.0826
▁angenehm	-11.0843
wasser	-11.0858
▁trage	-11.086
▁Kleider	-11.0861
▁kaufe	-11.0862
▁tausend	-11.0863
rzte	-11.0867
▁Day	-11.0883
▁parked	-11.0885
▁Oh	-11.0887
sprache	-11.0938
schluss	-11.094
▁self	-11.094
bücher	-11.0941
▁Einladung	-11.0941
▁Etwas	-11.0941
▁Größe	-11.0941
▁Hurry	-11.0941
▁Vergangenheit	-11.0941
▁accustom	-11.0941
▁beeindrucken	-11.0941
▁exhausted	-11.0941
▁schneien	-11.0941
▁volunteer	-11.0941
▁request	-11.0941
▁space	-11.0941
▁kidding	-11.0941
▁Sehen	-11.0941
▁Motor	-11.0941
▁pressure	-11.0941
▁attempt	-11.0941
▁winning	-11.0941
hilfl	-11.0941
▁Fahrkarte	-11.0941
▁direction	-11.0942
▁Notiz	-11.0944
▁theory	-11.0944
▁wound	-11.0944
▁settle	-11.0948
▁Nation	-11.095
▁versicher	-11.095
▁bigger	-11.0951
▁gestand	-11.0962
▁jam	-11.0964
▁roten	-11.0968
▁lower	-11.0977
eswegen	-11.0999
▁verschiedene	-11.1008
▁difficulty	-11.1025
oney	-11.1032
▁wovo	-11.1049
▁Blume	-11.1066
▁danke	-11.1067
▁annehmen	-11.108
ship	-11.1085
▁butter	-11.1087
▁annoy	-11.1135
▁12	-11.1137
ährend	-11.1144
▁Bürger	-11.1149
▁Häuser	-11.1149
▁Kilometer	-11.1149
▁Wäsche	-11.1149
▁anxious	-11.1149
▁geduldig	-11.1149
▁gunshot	-11.1149
▁suspicious	-11.1149
▁provide	-11.1149
▁unglücklich	-11.1149
▁Puppe	-11.1149
▁nennt	-11.1149
▁factory	-11.1149
▁Füll	-11.1149
▁dunkle	-11.1149
▁blew	-11.1149
▁boil	-11.1149
▁verwendet	-11.1149
▁instead	-11.1149
▁thick	-11.1149
ify	-11.115
▁raucht	-11.115
▁Open	-11.1151
▁Sing	-11.1154
▁socks	-11.1156
▁neulich	-11.1156
▁dritte	-11.1158
▁Hoch	-11.1158
▁punished	-11.1159
▁begangen	-11.116
▁trau	-11.1161
▁ignore	-11.1165
▁überlegen	-11.1171
▁Vertrauen	-11.1175
zumachen	-11.1182
▁schönste	-11.1193
▁soft	-11.12
▁aufgegeben	-11.1202
▁Suche	-11.1227
▁angenommen	-11.1238
▁Polizisten	-11.1248
▁höchste	-11.1248
▁beenden	-11.1257
rufen	-11.1281
▁schätze	-11.1285
▁beard	-11.1289
V	-11.1296
▁Kennen	-11.1296
▁Trau	-11.132
▁Ergebnis	-11.1321
ätze	-11.1333
digt	-11.1336
Bahn	-11.1349
▁erreichte	-11.1356
▁Blatt	-11.1362
▁Hobby	-11.1362
▁Hügel	-11.1362
▁Krebs	-11.1362
▁affect	-11.1362
▁begeistert	-11.1362
▁captain	-11.1362
▁credit	-11.1362
▁genannt	-11.1362
▁günstig	-11.1362
▁kompliziert	-11.1362
▁progress	-11.1362
▁sonntags	-11.1362
▁verabschieden	-11.1362
▁Prozent	-11.1362
▁bottom	-11.1362
▁knowledge	-11.1362
▁töten	-11.1362
▁Jungs	-11.1362
▁bestraft	-11.1362
▁cash	-11.1362
▁wiederholen	-11.1362
▁schenken	-11.1362
▁nerve	-11.1362
▁kämpfen	-11.1362
▁fence	-11.1362
▁Stand	-11.1362
▁Wissenschaftler	-11.1362
▁Immer	-11.1362
▁center	-11.1362
▁beweisen	-11.1363
▁bauen	-11.1363
▁ankam	-11.1364
▁plate	-11.1365
▁issue	-11.137
▁schlau	-11.137
▁Haut	-11.1374
▁unternehmen	-11.1375
▁abgenommen	-11.1377
▁Socken	-11.1378
▁schuld	-11.1382
▁pushed	-11.1384
▁Fach	-11.1389
▁daher	-11.1389
▁crossed	-11.1395
▁reichte	-11.1401
▁Sitz	-11.1403
▁workers	-11.1404
▁trauen	-11.1408
▁skiing	-11.1411
▁aufgefallen	-11.1411
▁schneiden	-11.1413
tausch	-11.1435
▁tooth	-11.1439
▁tip	-11.1469
fassung	-11.1495
tragen	-11.1496
ext	-11.1496
isiert	-11.1514
R	-11.1516
▁entschied	-11.1534
▁blieben	-11.1538
▁build	-11.1565
lötzlich	-11.1578
▁apart	-11.1579
▁Portemonnaie	-11.1579
▁entschuldigt	-11.1579
▁gekonnt	-11.1579
▁gezeigt	-11.1579
▁pleasure	-11.1579
▁stieß	-11.1579
▁verschwinde	-11.1579
▁degree	-11.1579
▁empfehle	-11.1579
▁Wunsch	-11.1579
▁example	-11.1579
▁guard	-11.1579
▁Russia	-11.1579
▁eilig	-11.1579
▁verhaftet	-11.1579
▁eventually	-11.1579
▁awful	-11.158
▁foolish	-11.158
▁court	-11.158
▁Schönheit	-11.1581
▁Knie	-11.1581
▁coward	-11.1581
▁ernsthaft	-11.1581
▁Italy	-11.1581
▁zieht	-11.1581
▁überlegt	-11.1581
▁Spielzeug	-11.1581
▁mirror	-11.1581
▁sonderlich	-11.1587
ügt	-11.1588
▁Meter	-11.159
▁Wunder	-11.1591
▁copy	-11.1594
▁Port	-11.1595
▁blonde	-11.1597
▁zahlt	-11.1599
▁ignoriert	-11.1607
▁französisch	-11.1609
▁Patienten	-11.1611
ückte	-11.1616
▁dating	-11.1616
seite	-11.162
▁ignored	-11.1621
▁voraus	-11.163
▁Und	-11.1631
▁teaching	-11.1633
▁egg	-11.1639
▁Spieler	-11.1639
▁füttern	-11.1645
▁cleaning	-11.1651
▁program	-11.1666
ball	-11.1686
▁wisse	-11.1722
looking	-11.1725
▁lachten	-11.1725
bekommen	-11.1769
▁continue	-11.1773
▁Fliege	-11.1777
▁disappoint	-11.1783
hings	-11.1786
kleid	-11.1794
▁import	-11.18
führer	-11.1802
▁Gefangene	-11.1802
▁Kontrolle	-11.1802
▁Pflanzen	-11.1802
▁Sonnenbrille	-11.1802
▁Studium	-11.1802
▁Unterstützung	-11.1802
▁beauty	-11.1802
▁election	-11.1802
▁geglaubt	-11.1802
▁gekostet	-11.1802
▁gloves	-11.1802
▁gutaussehend	-11.1802
▁invitation	-11.1802
▁marriage	-11.1802
▁notwendig	-11.1802
▁service	-11.1802
▁unhappy	-11.1802
▁erlauben	-11.1802
▁jedoch	-11.1802
▁Botschaft	-11.1802
▁argue	-11.1802
▁Good	-11.1802
▁Teich	-11.1802
▁baked	-11.1802
▁ewig	-11.1802
▁tongue	-11.1802
▁football	-11.1802
▁trotzdem	-11.1802
▁kennenlernen	-11.1802
▁aufzuhören	-11.1802
▁stärker	-11.1802
▁Mittel	-11.1802
▁lügt	-11.1802
▁sale	-11.1803
▁Speak	-11.1803
▁Mama	-11.1803
▁breit	-11.1804
▁Brand	-11.1804
▁potatoes	-11.1806
▁Kuss	-11.1807
▁frische	-11.1808
▁bot	-11.1809
kehren	-11.181
▁overlook	-11.1815
Yes	-11.1816
▁Rock	-11.1817
▁allmählich	-11.182
▁wounded	-11.1822
▁gibst	-11.1824
▁introduced	-11.1824
▁Dusche	-11.1832
▁dri	-11.1834
▁hergestellt	-11.1835
▁klingelte	-11.1843
▁Ländern	-11.1853
▁spit	-11.1854
▁press	-11.1859
▁signed	-11.186
▁aufstehen	-11.1874
▁befinde	-11.1875
▁anziehen	-11.1878
▁erster	-11.1878
mission	-11.1886
▁Ober	-11.1928
ergibt	-11.1937
▁closer	-11.194
▁larger	-11.1949
▁vermisse	-11.195
▁regnete	-11.1951
▁folgte	-11.1952
▁schmerz	-11.1964
Where	-11.1966
▁crow	-11.2
▁Africa	-11.2029
▁Besonderes	-11.2029
▁Konferenz	-11.2029
▁Samstag	-11.2029
▁audience	-11.2029
▁begonnen	-11.2029
▁curtain	-11.2029
▁engaged	-11.2029
▁gewarnt	-11.2029
▁gewinnt	-11.2029
▁relativ	-11.2029
▁silence	-11.2029
▁sunglasses	-11.2029
▁verbessert	-11.2029
▁vernünftig	-11.2029
▁violin	-11.2029
▁Kellner	-11.2029
▁Spanisch	-11.2029
▁airplane	-11.2029
▁amüsiert	-11.2029
▁entrance	-11.2029
▁tapfer	-11.2029
▁lernst	-11.2029
▁pray	-11.2029
▁Müll	-11.2029
▁schreien	-11.2029
▁Motorrad	-11.2029
▁Idiot	-11.2029
▁kehrte	-11.2029
▁brain	-11.2029
mäßig	-11.2029
üchtig	-11.2029
▁speed	-11.203
▁Schild	-11.203
▁doppelt	-11.203
▁friendship	-11.2031
▁teilnehmen	-11.2031
▁Muttersprache	-11.2032
▁abgeschlossen	-11.2033
▁begun	-11.2033
▁Vorteil	-11.2035
▁Father	-11.2037
rgic	-11.2038
▁bewegt	-11.2038
▁Eile	-11.2044
▁Pri	-11.2051
▁pet	-11.2056
▁Nei	-11.2063
▁Ecke	-11.2067
over	-11.2072
▁acting	-11.2077
▁Say	-11.2085
▁vorsichtiger	-11.2102
nswer	-11.2114
▁Kochen	-11.2116
▁dish	-11.2118
frei	-11.2124
▁Lies	-11.2145
▁Herzen	-11.215
▁höchst	-11.2152
▁fassen	-11.2153
▁Pol	-11.2167
▁Hatte	-11.2193
werfen	-11.2198
film	-11.2202
schaffen	-11.2205
▁Information	-11.2216
▁mar	-11.2229
Ja	-11.2229
▁Sich	-11.2253
spect	-11.2259
▁Münze	-11.2261
▁Teppich	-11.2261
▁envelope	-11.2261
▁ermordet	-11.2261
▁evidence	-11.2261
▁exchange	-11.2261
▁gewaschen	-11.2261
▁hieß	-11.2261
▁increase	-11.2261
▁relationship	-11.2261
▁throat	-11.2261
▁value	-11.2261
▁vergaß	-11.2261
▁Sitzungszimmer	-11.2261
▁Volk	-11.2261
▁bedeckt	-11.2261
▁measure	-11.2261
▁unusual	-11.2262
▁drückte	-11.2262
▁Theorie	-11.2262
▁fünfzehn	-11.2262
▁dry	-11.2262
▁griff	-11.2262
▁Unrecht	-11.2263
▁perform	-11.2263
▁cheer	-11.2263
▁tough	-11.2264
trieben	-11.2264
▁compare	-11.2264
▁Scherz	-11.2264
▁Papa	-11.2265
▁thin	-11.227
▁ausgezeichnet	-11.2271
▁Mother	-11.2272
▁nebenan	-11.2273
▁hierbleiben	-11.2275
▁Vergessen	-11.2278
▁schlage	-11.2278
▁vergeben	-11.2286
▁benötigen	-11.2311
▁prepare	-11.2313
▁stronger	-11.2335
▁überlasse	-11.2344
▁Clo	-11.235
▁visiting	-11.2353
They	-11.2436
▁Rauch	-11.2459
resident	-11.2498
Who	-11.2499
▁Jo	-11.2499
Do	-11.2499
Krankenschwester	-11.2499
utzutage	-11.2499
▁Feigling	-11.2499
▁Freizeit	-11.2499
▁anwesend	-11.2499
▁aufmerksam	-11.2499
▁beschützen	-11.2499
▁childhood	-11.2499
▁complicated	-11.2499
▁furchtbar	-11.2499
▁gegenseitig	-11.2499
▁grateful	-11.2499
▁herausfinden	-11.2499
▁naked	-11.2499
▁politics	-11.2499
▁remark	-11.2499
▁sorgfältig	-11.2499
▁stundenlang	-11.2499
▁supper	-11.2499
▁School	-11.2499
▁irgendwann	-11.2499
▁lohnt	-11.2499
▁spread	-11.2499
▁riesige	-11.2499
▁Beruf	-11.2499
▁Doktor	-11.25
▁regul	-11.25
▁anzurufen	-11.25
▁Handschuhe	-11.25
▁wechseln	-11.25
▁Lebensmittel	-11.25
▁pale	-11.2501
▁Beispiel	-11.2501
▁replace	-11.2501
▁weird	-11.2502
▁Gehalt	-11.2505
▁toilet	-11.2505
▁Aussehen	-11.2505
▁handeln	-11.2506
▁gerecht	-11.2506
▁netter	-11.2507
▁Atem	-11.2507
▁zurückgekommen	-11.2508
▁Rome	-11.2509
▁tight	-11.2511
▁Kobe	-11.2515
▁manner	-11.2529
gibt	-11.2534
▁succeeded	-11.2545
▁kissing	-11.2561
▁sogar	-11.2565
▁werfen	-11.2566
getreten	-11.2576
▁predict	-11.259
▁fass	-11.2594
▁hinten	-11.2611
▁treffe	-11.2665
rmel	-11.2675
problem	-11.268
farbe	-11.2698
burg	-11.2708
▁refuse	-11.2715
▁whi	-11.2715
graph	-11.2743
▁chinesisch	-11.2743
abbed	-11.2743
▁Bedeutung	-11.2743
▁Erwachsene	-11.2743
▁Februar	-11.2743
▁Gedächtnis	-11.2743
▁Smoking	-11.2743
▁Toilette	-11.2743
▁Zwillinge	-11.2743
▁affair	-11.2743
▁approach	-11.2743
▁gefrühstückt	-11.2743
▁geweckt	-11.2743
▁motorcycle	-11.2743
▁picnic	-11.2743
▁refrigerator	-11.2743
▁schaltete	-11.2743
▁science	-11.2743
▁subway	-11.2743
▁träume	-11.2743
▁behandeln	-11.2743
▁invented	-11.2743
▁rescu	-11.2743
▁selber	-11.2743
▁stock	-11.2743
▁verirrt	-11.2743
▁witness	-11.2743
▁Italian	-11.2743
▁Kampf	-11.2743
▁niedrig	-11.2743
▁proof	-11.2743
▁prince	-11.2743
▁Zaun	-11.2743
▁accent	-11.2743
▁Beschwerde	-11.2743
▁Kunden	-11.2743
▁opera	-11.2743
▁gentleman	-11.2744
▁Genau	-11.2744
▁heftig	-11.2744
▁mild	-11.2744
greifen	-11.2744
▁Ehemann	-11.2744
▁Nebel	-11.2744
▁fog	-11.2745
▁insult	-11.2745
▁Drink	-11.2746
▁Ganz	-11.2746
▁text	-11.2746
▁Eure	-11.2747
▁round	-11.2747
gerät	-11.2748
▁Voraus	-11.2751
▁Besitz	-11.2753
▁Bauch	-11.2755
park	-11.2757
rlei	-11.2763
▁divorced	-11.2766
▁stet	-11.2766
▁clearly	-11.2773
▁quietly	-11.2777
▁Geheimnisse	-11.2777
▁leiser	-11.2777
stieg	-11.2804
▁manager	-11.2812
▁11	-11.2819
stall	-11.2835
kur	-11.2874
▁lacht	-11.2903
10	-11.2907
L	-11.2931
▁Wach	-11.2937
▁concern	-11.2975
▁final	-11.2986
▁Shi	-11.2986
▁Klima	-11.2993
▁Nagoya	-11.2993
▁Schlimmste	-11.2993
▁Temperatur	-11.2993
▁Washington	-11.2993
▁amazing	-11.2993
▁benötigt	-11.2993
▁besorgen	-11.2993
▁fifty	-11.2993
▁incredibl	-11.2993
▁korrekt	-11.2993
▁method	-11.2993
▁studies	-11.2993
▁Schriftsteller	-11.2993
▁further	-11.2993
▁füllte	-11.2993
▁delay	-11.2993
▁poet	-11.2993
▁ändert	-11.2993
minister	-11.2993
▁schief	-11.2993
▁verpassen	-11.2993
▁purse	-11.2993
spruch	-11.2993
▁dessert	-11.2994
▁USA	-11.2994
▁Versteck	-11.2994
▁merken	-11.2994
jahr	-11.2994
▁sheep	-11.2994
▁grade	-11.2996
▁festgenommen	-11.2996
zuholen	-11.2997
▁elf	-11.2998
▁antun	-11.2999
▁shout	-11.2999
▁disappeared	-11.3
▁Verstand	-11.3008
▁Few	-11.301
▁hired	-11.3011
▁concerned	-11.3012
▁antwortete	-11.3019
▁schließlich	-11.302
▁ausmachen	-11.3021
▁Planet	-11.3024
ja	-11.3025
▁Marie	-11.3025
▁Held	-11.3025
▁wrap	-11.3028
▁intended	-11.3029
▁forty	-11.303
▁cow	-11.3033
▁aim	-11.304
▁Informationen	-11.3043
▁angesehen	-11.3048
statt	-11.3066
▁naive	-11.3126
▁Spa	-11.3137
▁Grad	-11.3165
▁alcohol	-11.32
durch	-11.3202
▁receive	-11.3221
▁Verkauf	-11.325
▁disturb	-11.325
straße	-11.325
▁Eintrittskarte	-11.325
▁Kontakt	-11.325
▁Nerven	-11.325
▁Ticket	-11.325
▁abandoned	-11.325
▁abgelehnt	-11.325
▁access	-11.325
▁banana	-11.325
▁citizen	-11.325
▁cough	-11.325
▁everywhere	-11.325
▁fashion	-11.325
▁geregnet	-11.325
▁happiness	-11.325
▁kämpft	-11.325
▁textbook	-11.325
▁verschwunden	-11.325
▁wäscht	-11.325
▁ungewöhnlich	-11.325
▁Banane	-11.325
▁blow	-11.325
▁Probier	-11.325
▁unterwegs	-11.325
▁Geburt	-11.325
▁wenigstens	-11.325
▁nimmst	-11.325
▁befand	-11.325
▁Wohnzimmer	-11.325
▁Eimer	-11.325
▁jenem	-11.325
▁zöge	-11.325
▁Almos	-11.325
▁double	-11.325
▁tourist	-11.3251
▁Wirtschaft	-11.3251
▁ignorieren	-11.3251
▁Mauer	-11.3252
▁Kerze	-11.3253
▁Shu	-11.3253
▁towel	-11.3253
▁vierzig	-11.3253
▁Grab	-11.3255
▁candle	-11.3261
▁professor	-11.3264
▁Worüber	-11.3264
schau	-11.3273
▁perfectly	-11.3275
▁mark	-11.3282
▁repaired	-11.3282
▁holding	-11.3283
▁cheaper	-11.3289
▁runter	-11.329
▁fragst	-11.3294
▁pull	-11.3296
▁Ergebnisse	-11.33
▁überein	-11.3303
▁farmer	-11.3308
▁Noch	-11.3312
▁wide	-11.3318
day	-11.3332
▁legal	-11.3379
▁Schrei	-11.3409
▁Geige	-11.3412
▁fütter	-11.3434
frage	-11.3454
▁Million	-11.3468
desto	-11.3488
▁cloth	-11.3503
punkt	-11.3509
▁direct	-11.3511
erkannt	-11.3511
▁Angewohnheit	-11.3513
▁Blätter	-11.3513
▁Energie	-11.3513
▁Kaninchen	-11.3513
▁Publikum	-11.3513
▁Sommerferien	-11.3513
▁Tuesday	-11.3513
▁accompan	-11.3513
▁achieve	-11.3513
▁ausleihen	-11.3513
▁beschädigt	-11.3513
▁betrayed	-11.3513
▁conference	-11.3513
▁confessed	-11.3513
▁cruel	-11.3513
▁describe	-11.3513
▁dünn	-11.3513
▁eleven	-11.3513
▁experiment	-11.3513
▁fluently	-11.3513
▁gebrauchen	-11.3513
▁gefasst	-11.3513
▁hässlich	-11.3513
▁nirgendwo	-11.3513
▁notebook	-11.3513
▁rough	-11.3513
▁scientist	-11.3513
▁valuable	-11.3513
▁zerbrochen	-11.3513
▁Keller	-11.3513
▁diejenige	-11.3513
▁faint	-11.3513
▁gelebt	-11.3513
▁salad	-11.3513
▁constant	-11.3513
▁Meilen	-11.3513
▁Trotz	-11.3513
▁equal	-11.3513
▁kicke	-11.3513
▁general	-11.3513
▁herrscht	-11.3513
▁grass	-11.3513
▁bathroom	-11.3513
▁Lastwagen	-11.3513
▁bowl	-11.3513
▁carpet	-11.3514
▁jeans	-11.3514
▁shook	-11.3514
▁Britis	-11.3514
▁limit	-11.3515
▁Jahrhundert	-11.3516
▁crush	-11.3516
▁Neben	-11.3516
▁Schauspielerin	-11.3517
▁musician	-11.3517
▁endete	-11.3522
▁trap	-11.3531
▁schwach	-11.3534
▁überfahren	-11.3537
▁grau	-11.3538
▁invest	-11.3538
▁meters	-11.3545
omic	-11.3549
▁auszugehen	-11.3554
▁leader	-11.356
berlass	-11.3561
▁Beide	-11.361
▁fehl	-11.3628
▁Schalte	-11.3662
▁Verlass	-11.3667
▁qua	-11.3671
▁Alte	-11.3711
geschlagen	-11.3712
Wie	-11.3729
room	-11.3731
dienst	-11.3736
cording	-11.3754
ppel	-11.3759
▁Schuss	-11.3779
▁unles	-11.378
▁irgend	-11.3782
sätzlich	-11.3783
▁Geschirr	-11.3783
▁Huhn	-11.3783
▁Mörder	-11.3783
▁Promise	-11.3783
▁Selbstmord	-11.3783
▁Unfortunately	-11.3783
▁Verzeih	-11.3783
▁bucket	-11.3783
▁climate	-11.3783
▁cooperat	-11.3783
▁drowned	-11.3783
▁emergency	-11.3783
▁flood	-11.3783
▁gebissen	-11.3783
▁gewöhnen	-11.3783
▁hervorragend	-11.3783
▁opportunity	-11.3783
▁possibility	-11.3783
▁scheiden	-11.3783
▁träumt	-11.3783
▁twelve	-11.3783
▁verlobt	-11.3783
▁verzeihen	-11.3783
▁bemerken	-11.3783
▁ocean	-11.3783
▁Wirklichkeit	-11.3783
▁bedeuten	-11.3783
▁braune	-11.3783
▁passengers	-11.3783
▁applie	-11.3783
▁threatened	-11.3783
▁Rennen	-11.3783
▁Think	-11.3783
▁actress	-11.3783
▁verwenden	-11.3783
▁Kreditkarte	-11.3783
▁irrt	-11.3783
▁Schutz	-11.3783
▁überreden	-11.3784
▁Heimweg	-11.3784
▁Diät	-11.3784
gestoßen	-11.3784
▁content	-11.3784
▁Dienstag	-11.3785
▁secretary	-11.3785
▁Handtasche	-11.3785
▁someday	-11.3788
▁sank	-11.379
▁rasiert	-11.379
▁Kopie	-11.3791
▁hinweg	-11.3791
▁rise	-11.3792
▁Durst	-11.3792
▁loudly	-11.3804
▁retired	-11.3806
▁desert	-11.3816
▁staring	-11.3839
▁gib	-11.388
▁relie	-11.3901
▁Laut	-11.3937
wissenschaft	-11.3945
▁Behalte	-11.3964
▁interessiere	-11.3982
What	-11.3998
▁wiederkomme	-11.4019
sichtlich	-11.402
▁introduce	-11.4032
▁sudden	-11.4053
▁birth	-11.4061
▁Elefant	-11.4061
jährige	-11.4061
▁Bevölkerung	-11.4061
▁Blitz	-11.4061
▁Schwimmbecken	-11.4061
▁begrüßt	-11.4061
▁bezweifle	-11.4061
▁century	-11.4061
▁contribut	-11.4061
▁develop	-11.4061
▁education	-11.4061
▁enthält	-11.4061
▁financial	-11.4061
▁generous	-11.4061
▁großzügig	-11.4061
▁höher	-11.4061
▁mitzuteilen	-11.4061
▁nail	-11.4061
▁nannte	-11.4061
▁robbed	-11.4061
▁pitch	-11.4061
▁reizend	-11.4061
▁verbrannt	-11.4061
▁zählt	-11.4061
▁getrennt	-11.4061
▁Opfer	-11.4061
▁bookstore	-11.4061
▁trifft	-11.4061
▁Geruch	-11.4061
▁Riesen	-11.4061
▁mouse	-11.4061
▁Juni	-11.4061
▁Arbeitsplatz	-11.4061
▁Kurz	-11.4061
▁Ferne	-11.4061
▁biggest	-11.4061
▁Salat	-11.4061
▁sail	-11.4061
▁gilt	-11.4061
▁rechne	-11.4061
▁Narr	-11.4061
ffentlichkeit	-11.4061
stunde	-11.4062
▁hugged	-11.4062
▁path	-11.4062
▁spot	-11.4062
gerissen	-11.4062
▁drücken	-11.4062
▁Gang	-11.4062
▁skirt	-11.4063
▁planned	-11.4064
▁riss	-11.4064
▁scene	-11.4064
▁Text	-11.4065
▁Dreh	-11.4065
▁Sätze	-11.4065
▁hingegangen	-11.4067
▁dye	-11.4067
▁hinterlassen	-11.4067
▁unterschreiben	-11.4067
▁Zustand	-11.4068
▁deshalb	-11.4071
▁drum	-11.4078
▁canceled	-11.4078
▁überleben	-11.408
▁survived	-11.4086
▁Mich	-11.4087
zünde	-11.4089
▁putzen	-11.4089
▁crowded	-11.4092
▁pot	-11.4096
▁Dort	-11.4099
▁schlich	-11.4104
▁meiste	-11.4107
▁master	-11.4107
▁teaches	-11.4108
▁Gründe	-11.4118
zusetzen	-11.4129
▁Heim	-11.4175
ithout	-11.4191
▁prepar	-11.423
▁antworte	-11.4239
▁stepp	-11.4248
▁schaffe	-11.4268
geschlossen	-11.4278
zwanzig	-11.4283
▁hug	-11.4314
▁Sollte	-11.4324
▁knock	-11.4328
▁Jugend	-11.4332
gruppe	-11.4347
▁Dummheit	-11.4347
▁Nahrung	-11.4347
▁Phantasie	-11.4347
▁Produkt	-11.4347
▁Taifun	-11.4347
▁Thomas	-11.4347
▁Vergnügen	-11.4347
▁World	-11.4347
▁accomplish	-11.4347
▁ceiling	-11.4347
▁coincidence	-11.4347
▁enemies	-11.4347
▁erfordert	-11.4347
▁exciting	-11.4347
▁ourselves	-11.4347
▁reliable	-11.4347
▁translation	-11.4347
▁vermeiden	-11.4347
▁verschlossen	-11.4347
▁zurückgekehrt	-11.4347
▁öfter	-11.4347
▁Abwasch	-11.4347
▁Löwe	-11.4347
▁Street	-11.4347
▁umsonst	-11.4347
▁verstecken	-11.4347
▁schützen	-11.4347
▁schließt	-11.4347
gewiesen	-11.4347
▁Betracht	-11.4347
▁Ferien	-11.4347
ländisch	-11.4347
▁kürz	-11.4347
▁greet	-11.4347
▁locate	-11.4347
▁Umstände	-11.4347
▁blanket	-11.4347
▁addict	-11.4347
▁employee	-11.4347
▁Zelt	-11.4348
▁illness	-11.4349
▁merkwürdig	-11.4349
▁error	-11.4349
▁Rasen	-11.435
▁active	-11.4351
▁complaints	-11.4353
▁Kilo	-11.4354
▁Versehen	-11.4356
▁talented	-11.436
▁wachsen	-11.436
▁actor	-11.4363
▁knocked	-11.4366
▁annoying	-11.4367
▁aufrichtig	-11.4368
zuziehen	-11.4387
▁wipe	-11.4419
▁Ernst	-11.4433
zulegen	-11.4511
▁komm	-11.4517
▁öffne	-11.4541
▁steckt	-11.4557
▁grüne	-11.4573
werden	-11.4578
▁possibl	-11.4594
▁circ	-11.4602
mangel	-11.4608
Mail	-11.4616
▁Autounfall	-11.4641
▁Einzelheiten	-11.4641
▁Fotoapparat	-11.4641
▁Gemälde	-11.4641
▁Gewalt	-11.4641
▁Kapitän	-11.4641
▁Kälte	-11.4641
▁Operation	-11.4641
▁Professor	-11.4641
▁Reifen	-11.4641
▁Rätsel	-11.4641
▁Verabredung	-11.4641
▁Verdächtige	-11.4641
▁Versprich	-11.4641
▁deceive	-11.4641
▁geleistet	-11.4641
▁separate	-11.4641
▁smiling	-11.4641
▁typhoon	-11.4641
▁unexpected	-11.4641
▁unfair	-11.4641
▁untersuchen	-11.4641
▁vergisst	-11.4641
▁verurteilt	-11.4641
▁wunderschön	-11.4641
▁zwingen	-11.4641
▁Humor	-11.4641
▁deliver	-11.4641
▁deutlich	-11.4641
▁gekleidet	-11.4641
▁gäbe	-11.4641
▁postpone	-11.4641
füllen	-11.4641
▁carrots	-11.4641
▁Erwarte	-11.4641
▁geschnitten	-11.4641
▁geschossen	-11.4641
▁nackt	-11.4641
▁poker	-11.4641
▁worauf	-11.4641
▁General	-11.4641
▁bedanken	-11.4641
▁occurred	-11.4641
▁gewann	-11.4641
▁Herbst	-11.4641
▁abholen	-11.4641
geschichte	-11.4641
▁slipped	-11.4641
▁minor	-11.4641
▁Stoff	-11.4641
▁erschossen	-11.4641
▁yard	-11.4641
▁Paket	-11.4641
▁ugly	-11.4641
musik	-11.4641
▁befolgen	-11.4641
▁gesamte	-11.4641
▁pipe	-11.4641
▁Talent	-11.4641
▁committed	-11.4642
▁Poker	-11.4642
▁nearby	-11.4643
▁Euro	-11.4644
▁successful	-11.4644
▁abgesagt	-11.4644
▁wander	-11.4645
▁Atom	-11.4645
▁mix	-11.4645
▁pants	-11.4646
▁nuts	-11.4646
▁port	-11.4647
▁discussion	-11.4647
▁Besseres	-11.4647
▁dreihundert	-11.4648
▁action	-11.4649
▁frightened	-11.465
▁June	-11.465
▁vorgeschlagen	-11.465
▁Sprech	-11.4657
▁Maus	-11.4666
▁Seele	-11.4673
▁Juli	-11.4685
gli	-11.4692
▁lean	-11.4716
▁wr	-11.4731
dependent	-11.4742
willig	-11.4824
▁unterscheide	-11.4865
tress	-11.487
zehn	-11.4876
krank	-11.4881
How	-11.4884
führen	-11.4909
▁sweat	-11.492
▁cancel	-11.493
▁faith	-11.4944
▁Bushaltestelle	-11.4944
▁Fortschritte	-11.4944
▁Lebensunterhalt	-11.4944
▁Oberschule	-11.4944
▁Töchter	-11.4944
▁Verantwortung	-11.4944
▁Zeichen	-11.4944
▁ambulance	-11.4944
▁arrange	-11.4944
▁assistance	-11.4944
▁auswendig	-11.4944
▁beleidigt	-11.4944
▁beschweren	-11.4944
▁celebrate	-11.4944
▁economy	-11.4944
▁geeignet	-11.4944
▁geirrt	-11.4944
▁klopfte	-11.4944
▁luggage	-11.4944
▁längst	-11.4944
▁occasion	-11.4944
▁original	-11.4944
▁policy	-11.4944
▁rabbit	-11.4944
▁rejected	-11.4944
▁verhindern	-11.4944
▁reservation	-11.4944
▁verschieben	-11.4944
▁Schweiz	-11.4944
▁überlebt	-11.4944
▁fortune	-11.4944
▁Egal	-11.4944
▁humor	-11.4944
▁hesitate	-11.4944
▁wohlhabend	-11.4944
▁complex	-11.4944
▁average	-11.4944
▁Team	-11.4944
gebildet	-11.4944
▁probiert	-11.4944
▁source	-11.4944
▁vermute	-11.4944
▁dasselbe	-11.4944
▁fett	-11.4945
▁starrte	-11.4945
mannschaft	-11.4946
▁App	-11.4946
▁model	-11.4947
▁Ruhestand	-11.4947
▁Trag	-11.4947
▁ablehnen	-11.4948
▁Angestellte	-11.4948
▁Vergleich	-11.4948
▁gerufen	-11.4949
▁Time	-11.4949
stadt	-11.495
allergie	-11.4951
▁ausruhen	-11.4952
▁fought	-11.4953
▁flog	-11.4955
▁useless	-11.4956
▁flag	-11.4967
▁Nachtisch	-11.4968
weile	-11.4982
▁Water	-11.4983
▁13	-11.5041
like	-11.508
horn	-11.5097
▁With	-11.5112
law	-11.5115
▁kauft	-11.5154
rices	-11.5184
place	-11.5192
geblieben	-11.5193
U	-11.5193
käme	-11.5194
lernen	-11.5209
▁Patient	-11.5211
▁Nehm	-11.5212
▁Lern	-11.5227
▁divorce	-11.5228
▁Eat	-11.5231
▁attract	-11.5255
▁electric	-11.5256
▁Ehrlich	-11.5256
▁responsibilit	-11.5256
▁Akzent	-11.5256
▁Begriff	-11.5256
▁Diskussion	-11.5256
▁Dunkeln	-11.5256
▁Erdbeere	-11.5256
▁Fünf	-11.5256
▁Kreuz	-11.5256
▁Sekunde	-11.5256
▁Werkzeug	-11.5256
▁Wettbewerb	-11.5256
▁Zwischen	-11.5256
▁argument	-11.5256
▁bestätigen	-11.5256
▁downstairs	-11.5256
▁entgegen	-11.5256
▁exercise	-11.5256
▁geantwortet	-11.5256
▁laundry	-11.5256
▁material	-11.5256
▁pleasant	-11.5256
▁wunderbar	-11.5256
▁yourselves	-11.5256
▁Wiedersehen	-11.5256
▁Zuhause	-11.5256
▁erholt	-11.5256
▁quarter	-11.5256
▁tattoo	-11.5256
▁Schweigen	-11.5256
▁aussuchen	-11.5256
▁evil	-11.5256
▁vollständig	-11.5256
▁menschliche	-11.5256
▁swear	-11.5256
▁Christ	-11.5256
▁fremd	-11.5256
feuer	-11.5256
▁basketball	-11.5256
▁vain	-11.5257
▁vase	-11.5257
▁task	-11.5257
▁Müss	-11.5257
▁bequem	-11.5257
▁depressed	-11.5257
▁oven	-11.5257
▁Druck	-11.5259
▁heutige	-11.5259
▁hello	-11.5259
▁Spain	-11.5264
▁tallest	-11.5267
▁verlaufen	-11.5269
▁hunting	-11.5269
bersetzung	-11.527
▁bilde	-11.5278
spül	-11.5282
▁lion	-11.5284
uelle	-11.5288
▁Zunge	-11.5309
▁Kasse	-11.5323
zuführen	-11.5364
▁studiere	-11.55
zo	-11.5504
You	-11.5516
wider	-11.5516
gehst	-11.5524
▁survive	-11.555
▁cover	-11.5572
▁differ	-11.5578
▁Valentin	-11.5579
▁Zauber	-11.5579
kontroll	-11.5579
▁Anweisungen	-11.5579
▁Basketball	-11.5579
▁Einbruch	-11.5579
▁Mexico	-11.5579
▁Vermögen	-11.5579
▁absorb	-11.5579
▁baggage	-11.5579
▁betrachtete	-11.5579
▁bleeding	-11.5579
▁competition	-11.5579
▁construction	-11.5579
▁diploma	-11.5579
▁gekannt	-11.5579
▁genius	-11.5579
▁gleichzeitig	-11.5579
▁hurried	-11.5579
▁nonsense	-11.5579
▁political	-11.5579
▁reputation	-11.5579
▁streichen	-11.5579
▁unzuverlässig	-11.5579
▁verabschiedet	-11.5579
▁verlässt	-11.5579
▁Einkauf	-11.5579
▁Spanien	-11.5579
▁betrifft	-11.5579
▁haircut	-11.5579
▁irrst	-11.5579
▁shape	-11.5579
▁Olympi	-11.5579
▁Söhne	-11.5579
▁verdanke	-11.5579
▁vorhatte	-11.5579
▁Earth	-11.5579
▁Gabel	-11.5579
▁Panik	-11.5579
▁deutsche	-11.5579
▁mathematics	-11.5579
▁erschien	-11.5579
▁Gewinn	-11.5579
▁brand	-11.5579
▁Lippen	-11.5579
▁herausgefunden	-11.5579
▁tries	-11.5579
▁gemalt	-11.5579
▁peel	-11.558
▁belogen	-11.558
▁grausam	-11.558
▁Leiche	-11.558
▁attractive	-11.558
▁assure	-11.558
▁verschwand	-11.558
▁Wecker	-11.558
▁south	-11.5582
▁Heiß	-11.5582
▁Unternehmen	-11.5583
▁objection	-11.5583
▁jederzeit	-11.5584
▁pleite	-11.5584
▁candy	-11.5585
statue	-11.5585
▁Schwein	-11.5587
▁Bücherei	-11.559
▁Stie	-11.5612
▁Schuh	-11.5629
▁Spinne	-11.5684
▁irgendein	-11.571
guck	-11.5719
▁soldier	-11.5752
▁baut	-11.5763
tändig	-11.5767
▁ignor	-11.5779
▁dieselbe	-11.5799
▁tru	-11.583
▁Gedanke	-11.5834
immer	-11.5841
trägt	-11.5849
mail	-11.5852
though	-11.5868
▁flow	-11.5889
▁Einwohner	-11.5912
▁current	-11.5912
Klassenkameraden	-11.5912
einfluss	-11.5912
gestört	-11.5912
▁Abwesenheit	-11.5912
▁Bewusstsein	-11.5912
▁Eichhörnchen	-11.5912
▁Mexiko	-11.5912
▁Pistole	-11.5912
▁Programm	-11.5912
▁Ratschläge	-11.5912
▁bezweifel	-11.5912
▁blickte	-11.5912
▁character	-11.5912
▁criminal	-11.5912
▁economic	-11.5912
▁erfüllt	-11.5912
▁handwriting	-11.5912
▁happier	-11.5912
▁incident	-11.5912
▁irgendjemand	-11.5912
▁kümmere	-11.5912
▁ohnmächtig	-11.5912
▁opposite	-11.5912
▁professional	-11.5912
▁quality	-11.5912
▁quarrel	-11.5912
▁stört	-11.5912
▁stürzte	-11.5912
▁temper	-11.5912
▁trinkst	-11.5912
▁trägst	-11.5912
▁underestimate	-11.5912
▁Privat	-11.5912
▁Tomorrow	-11.5912
▁Verlust	-11.5912
▁balance	-11.5912
▁begraben	-11.5912
▁mobile	-11.5912
▁verfügt	-11.5912
▁victim	-11.5912
▁wohnst	-11.5912
▁Benutz	-11.5912
▁Speise	-11.5912
▁drew	-11.5912
▁slam	-11.5912
▁Bewegung	-11.5912
▁Pfund	-11.5912
▁Außer	-11.5912
▁cheated	-11.5912
▁false	-11.5912
▁jewel	-11.5912
▁verliert	-11.5912
▁Leiter	-11.5912
▁Jeans	-11.5912
▁Züge	-11.5912
▁üblich	-11.5913
▁gucken	-11.5913
▁apply	-11.5913
▁gesungen	-11.5913
▁Ehre	-11.5913
▁electricity	-11.5913
▁herausbekommen	-11.5913
▁stritt	-11.5913
▁Maße	-11.5913
▁Bombe	-11.5914
▁vari	-11.5914
▁Umschlag	-11.5915
▁grave	-11.5915
▁weitermachen	-11.5916
▁Helf	-11.5919
▁stoppen	-11.5919
▁wealthy	-11.5921
richtig	-11.5925
▁rück	-11.5938
nna	-11.5945
▁Wora	-11.5963
▁Baseballspiel	-11.6002
▁Tru	-11.6133
▁führe	-11.6165
▁Länder	-11.6178
kennen	-11.618
▁zeichne	-11.6188
morgen	-11.6195
▁retire	-11.6228
ängstigt	-11.6245
▁Schauspieler	-11.6253
schlüssel	-11.6253
▁unterschrieb	-11.6257
bewohner	-11.6257
▁Ausländer	-11.6257
▁Benzin	-11.6257
▁Enttäusch	-11.6257
▁Geschwister	-11.6257
▁Kneipe	-11.6257
▁Ursache	-11.6257
▁akzeptiere	-11.6257
▁amüsieren	-11.6257
▁bedroht	-11.6257
▁conclusion	-11.6257
▁desperate	-11.6257
▁enttäuschen	-11.6257
▁heavily	-11.6257
▁horrible	-11.6257
▁influence	-11.6257
▁international	-11.6257
▁klüger	-11.6257
▁lächerlich	-11.6257
▁mitgeteilt	-11.6257
▁national	-11.6257
▁nature	-11.6257
▁pillow	-11.6257
▁pronounce	-11.6257
▁released	-11.6257
▁romantic	-11.6257
▁scratch	-11.6257
▁simply	-11.6257
▁telefoniert	-11.6257
▁ärgerlich	-11.6257
▁Tourist	-11.6257
▁beklagt	-11.6257
▁consult	-11.6257
▁insurance	-11.6257
▁produce	-11.6257
▁gehofft	-11.6257
▁gekocht	-11.6257
▁level	-11.6257
▁crack	-11.6257
▁Familienname	-11.6257
▁option	-11.6257
▁verbreite	-11.6257
▁betreten	-11.6257
▁geparkt	-11.6257
▁bewundere	-11.6257
▁lemon	-11.6257
▁besetzt	-11.6257
▁Learn	-11.6257
▁Indien	-11.6257
träge	-11.6257
▁resist	-11.6258
▁selfish	-11.6258
▁frühstückt	-11.6258
▁percent	-11.6259
▁Tennisspieler	-11.6259
▁investigat	-11.6259
▁dawn	-11.6259
▁verkehrt	-11.626
▁sprecht	-11.626
▁decent	-11.626
▁Aufsatz	-11.626
▁wenden	-11.626
▁impression	-11.626
nächst	-11.6261
▁Autoschlüssel	-11.6261
▁Light	-11.6261
▁comment	-11.6262
▁Zeitpunkt	-11.6265
▁klang	-11.6265
▁Kosten	-11.6266
▁tail	-11.6267
▁billion	-11.6267
▁hunt	-11.6294
kreis	-11.6389
lexi	-11.6502
spitze	-11.654
position	-11.6551
geschrieben	-11.6551
made	-11.6555
gelesen	-11.656
Was	-11.6561
weder	-11.6568
▁Soldat	-11.6569
▁Summe	-11.658
▁Stau	-11.6588
verkauf	-11.6613
schieße	-11.6614
▁Viertel	-11.6614
führung	-11.6614
▁Erwägung	-11.6614
▁Experiment	-11.6614
▁Fremden	-11.6614
▁Hält	-11.6614
▁Kümmer	-11.6614
▁Picasso	-11.6614
▁Plätze	-11.6614
▁Religion	-11.6614
▁Scheidung	-11.6614
▁Schicksal	-11.6614
▁September	-11.6614
▁Stühle	-11.6614
▁Texas	-11.6614
▁Yokohama	-11.6614
▁album	-11.6614
▁attraktiv	-11.6614
▁disgust	-11.6614
▁elephant	-11.6614
▁genügen	-11.6614
▁kennenzulernen	-11.6614
▁misunderstood	-11.6614
▁nutzlos	-11.6614
▁reluctant	-11.6614
▁ridiculous	-11.6614
▁robber	-11.6614
▁silver	-11.6614
▁spoiled	-11.6614
▁squirrel	-11.6614
▁struck	-11.6614
▁surrounded	-11.6614
▁vegetarian	-11.6614
▁verzichten	-11.6614
▁überprüft	-11.6614
▁Gebrauch	-11.6614
▁defend	-11.6614
▁local	-11.6614
▁Leitung	-11.6614
▁Meeting	-11.6614
▁politische	-11.6614
▁Schüsse	-11.6614
▁plain	-11.6614
maschine	-11.6614
▁seht	-11.6614
▁committee	-11.6614
▁Stör	-11.6614
▁Fäll	-11.6614
▁insisted	-11.6614
▁honor	-11.6614
▁Offen	-11.6614
▁Einzel	-11.6614
▁nowhere	-11.6615
▁Kommentar	-11.6615
▁dislike	-11.6615
▁begriff	-11.6615
▁eilte	-11.6615
▁Worauf	-11.6615
▁strich	-11.6615
▁Gewehr	-11.6615
▁operation	-11.6615
foto	-11.6615
▁stink	-11.6615
▁Abendbrot	-11.6616
▁changing	-11.6616
▁hierhergekommen	-11.6617
▁Datei	-11.6617
stift	-11.6617
▁Ausnahme	-11.6617
▁Handschrift	-11.6618
▁disco	-11.6619
▁exception	-11.6619
▁Add	-11.6619
▁US	-11.662
▁Steck	-11.6621
▁circle	-11.6662
▁blass	-11.6671
▁weint	-11.6711
▁Sekretärin	-11.6748
▁rohe	-11.6783
führt	-11.6889
wehr	-11.6898
▁benötige	-11.6905
▁Vertrau	-11.6939
▁Neuigkeit	-11.694
▁beeil	-11.6948
▁Kreis	-11.6971
▁Afrika	-11.6978
▁jog	-11.6984
mädchen	-11.6985
▁August	-11.6985
▁Badezimmer	-11.6985
▁Brazil	-11.6985
▁Erwartungen	-11.6985
▁Klimaanlage	-11.6985
▁Städte	-11.6985
▁Tausende	-11.6985
▁Verfügung	-11.6985
▁Waschmaschine	-11.6985
▁Wähle	-11.6985
▁angegriffen	-11.6985
▁assistant	-11.6985
▁beschuldigt	-11.6985
▁bestürzt	-11.6985
▁burglar	-11.6985
▁crawl	-11.6985
▁drauf	-11.6985
▁empfinde	-11.6985
▁fliegt	-11.6985
▁flirt	-11.6985
▁konzentrieren	-11.6985
▁narrow	-11.6985
▁nirgends	-11.6985
▁permitted	-11.6985
▁politician	-11.6985
▁target	-11.6985
▁unconscious	-11.6985
▁zwang	-11.6985
▁Detail	-11.6985
▁Stirn	-11.6985
▁beteiligt	-11.6985
▁whale	-11.6985
▁Valentinstag	-11.6985
▁divide	-11.6985
▁feucht	-11.6985
▁wuchs	-11.6985
▁related	-11.6985
▁erlitt	-11.6985
▁fridge	-11.6985
kraft	-11.6985
▁gefeuert	-11.6985
▁track	-11.6985
▁bound	-11.6985
▁gathered	-11.6985
▁Krankenwagen	-11.6985
▁spider	-11.6985
▁angeboten	-11.6985
▁Jesus	-11.6985
▁Gebiet	-11.6985
ältig	-11.6985
▁Vase	-11.6985
▁Handtuch	-11.6985
▁zweifel	-11.6985
▁skate	-11.6985
▁importance	-11.6985
▁odd	-11.6985
▁Skifahren	-11.6985
▁geriet	-11.6985
▁achtzehn	-11.6985
▁mitteilen	-11.6985
▁stress	-11.6986
▁Kissen	-11.6986
▁erbaut	-11.6987
▁swimmer	-11.6987
▁Vorhaben	-11.6987
▁Strom	-11.6988
▁Notfall	-11.6989
▁Verlier	-11.699
▁aktiv	-11.6992
geschaut	-11.6992
▁aufhört	-11.6993
▁desire	-11.6998
▁wiegt	-11.6999
oga	-11.7007
viertel	-11.7012
▁Staub	-11.7014
lüge	-11.7016
anruf	-11.7043
MP	-11.7057
stick	-11.7201
liste	-11.7202
pause	-11.7246
▁imagin	-11.7263
gesagt	-11.7303
trinken	-11.7306
gesucht	-11.7307
fiel	-11.7308
darf	-11.7319
▁advise	-11.7341
▁punish	-11.735
▁arrest	-11.7351
▁Wunde	-11.7351
ollow	-11.7367
▁trotz	-11.7368
▁basket	-11.7369
▁Hilton	-11.7369
gerechnet	-11.7369
gespräch	-11.7369
▁Allgemeine	-11.7369
▁Aufenthalt	-11.7369
▁California	-11.7369
▁Dummkopf	-11.7369
▁Esperanto	-11.7369
▁Gewohnheit	-11.7369
▁Januar	-11.7369
▁Literatur	-11.7369
▁Mozart	-11.7369
▁Picknick	-11.7369
▁Risiken	-11.7369
▁Schmetterling	-11.7369
▁Stärke	-11.7369
▁Terminkalender	-11.7369
▁diskutieren	-11.7369
▁encourage	-11.7369
▁ereignet	-11.7369
▁explosion	-11.7369
▁finanziell	-11.7369
▁fotografieren	-11.7369
▁heavier	-11.7369
▁impatient	-11.7369
▁instructions	-11.7369
▁lediglich	-11.7369
▁nachzudenken	-11.7369
▁overweight	-11.7369
▁participate	-11.7369
▁practical	-11.7369
▁schockiert	-11.7369
▁unerwartet	-11.7369
▁ungeduldig	-11.7369
▁verbessern	-11.7369
▁Vegetarier	-11.7369
▁acquaint	-11.7369
▁basement	-11.7369
▁schweigen	-11.7369
▁trocken	-11.7369
▁verschoben	-11.7369
▁Nachnamen	-11.7369
▁Nahrungsmittel	-11.7369
▁Schublade	-11.7369
▁ergriff	-11.7369
▁fox	-11.7369
▁hiervon	-11.7369
▁rettete	-11.7369
▁tätig	-11.7369
▁peinlich	-11.7369
▁Dutzend	-11.7369
▁geweint	-11.7369
▁loose	-11.7369
zeichen	-11.7369
▁schämt	-11.7369
▁shake	-11.7369
▁merkte	-11.7369
▁shame	-11.7369
emember	-11.7369
▁income	-11.7369
zutreten	-11.7369
▁Count	-11.7369
rztin	-11.7369
▁Ehefrau	-11.7369
▁Wild	-11.7369
▁Ehrlichkeit	-11.737
gerannt	-11.737
▁schießen	-11.737
▁firm	-11.737
▁verwandt	-11.737
▁stahl	-11.737
▁übernachte	-11.737
▁battle	-11.737
▁verwechselt	-11.737
▁safety	-11.737
▁design	-11.7371
▁appearance	-11.7371
▁Wissenschaft	-11.7371
▁courageous	-11.7372
▁north	-11.7373
▁Brieftasche	-11.7373
Geburtstagsfeier	-11.7373
▁package	-11.7373
▁create	-11.7376
▁Jugendliche	-11.7389
▁Schere	-11.7411
jagt	-11.7418
niedergeschlagen	-11.7422
fehler	-11.7524
▁naiv	-11.7559
▁lips	-11.758
hanging	-11.7614
▁vertraue	-11.7691
thirty	-11.7706
shirt	-11.7706
▁Staat	-11.7724
bersetze	-11.7727
▁blond	-11.7736
▁graduate	-11.7741
▁talent	-11.7742
▁hire	-11.7742
pecial	-11.7768
▁rub	-11.7769
klettern	-11.7769
trawberries	-11.7769
▁Antrag	-11.7769
▁Bürgermeister	-11.7769
▁Explosion	-11.7769
▁Freiheit	-11.7769
▁Gipfel	-11.7769
▁Luckily	-11.7769
▁Statue	-11.7769
▁Vorhang	-11.7769
▁briefcase	-11.7769
▁concentrate	-11.7769
▁confusing	-11.7769
▁conscious	-11.7769
▁department	-11.7769
▁diskutiert	-11.7769
▁equip	-11.7769
▁glatt	-11.7769
▁klassische	-11.7769
▁leather	-11.7769
▁optimistic	-11.7769
▁pills	-11.7769
▁praise	-11.7769
▁resemble	-11.7769
▁scolded	-11.7769
▁surgery	-11.7769
▁terribly	-11.7769
▁unreliable	-11.7769
▁verfolgt	-11.7769
▁versorgt	-11.7769
▁vitamin	-11.7769
▁wundervoll	-11.7769
▁Rotwein	-11.7769
▁UFO	-11.7769
▁Unschuld	-11.7769
▁aufzupassen	-11.7769
▁disaster	-11.7769
▁durstig	-11.7769
▁glance	-11.7769
▁ordentlich	-11.7769
▁spräche	-11.7769
▁temple	-11.7769
▁wiederholt	-11.7769
▁wusch	-11.7769
▁überquerte	-11.7769
cluded	-11.7769
geflogen	-11.7769
▁Black	-11.7769
▁Schlechte	-11.7769
▁Schneide	-11.7769
▁befürchte	-11.7769
▁guide	-11.7769
▁haunted	-11.7769
▁ärgert	-11.7769
▁Bedingung	-11.7769
▁Besorg	-11.7769
▁Grenze	-11.7769
▁Lkw	-11.7769
▁ability	-11.7769
▁geschäftlich	-11.7769
▁neigt	-11.7769
▁verbergen	-11.7769
gebrannt	-11.7769
▁schwöre	-11.7769
▁Kohle	-11.7769
▁blink	-11.7769
▁Dichter	-11.7769
▁Halb	-11.7769
▁Wider	-11.7769
▁Gehirn	-11.7769
▁Schlimme	-11.7769
fleisch	-11.7769
▁essential	-11.7769
▁consist	-11.777
▁gray	-11.777
▁Beginn	-11.777
leitung	-11.777
▁treten	-11.777
▁eighteen	-11.777
▁freiwillig	-11.777
▁hilfreich	-11.777
▁commit	-11.7771
frau	-11.7771
▁swam	-11.7772
▁Prinz	-11.7772
▁vorbeigekommen	-11.7773
▁contest	-11.7773
▁Warnung	-11.7774
▁Grand	-11.7774
löste	-11.7774
▁edge	-11.7775
▁bull	-11.7781
▁Haltestelle	-11.7782
▁geringe	-11.7782
▁imitat	-11.7824
sparen	-11.8035
berqueren	-11.8089
▁benutze	-11.8107
house	-11.8123
verein	-11.8125
▁Wovo	-11.8153
▁wealth	-11.8175
rmalerweise	-11.8179
reserv	-11.8183
prüfung	-11.8186
▁Alibi	-11.8186
▁Anfänger	-11.8186
▁Brunnen	-11.8186
▁Gegenwart	-11.8186
▁Gläser	-11.8186
▁Kalifornien	-11.8186
▁Klappe	-11.8186
▁Melodie	-11.8186
▁Missverständnis	-11.8186
▁Reparatur	-11.8186
▁Sandwich	-11.8186
▁Sauerstoff	-11.8186
▁Suddenly	-11.8186
▁Süßigkeiten	-11.8186
▁Umgebung	-11.8186
▁Zitrone	-11.8186
▁Zusammen	-11.8186
▁alibi	-11.8186
▁alternative	-11.8186
▁anstrengen	-11.8186
▁apology	-11.8186
▁arguing	-11.8186
▁ausgesprochen	-11.8186
▁boots	-11.8186
▁cheek	-11.8186
▁ernähren	-11.8186
▁expense	-11.8186
▁focus	-11.8186
▁gemütlich	-11.8186
▁kühl	-11.8186
▁pilot	-11.8186
▁popcorn	-11.8186
▁puzzle	-11.8186
▁religion	-11.8186
▁respond	-11.8186
▁schläfrig	-11.8186
▁schmecken	-11.8186
▁security	-11.8186
▁stubborn	-11.8186
▁treasure	-11.8186
▁versammel	-11.8186
▁whispered	-11.8186
▁Mikro	-11.8186
▁downtown	-11.8186
▁properly	-11.8186
▁strict	-11.8186
▁überraschen	-11.8186
▁Geschäftsführer	-11.8186
▁Kühe	-11.8186
▁Sterben	-11.8186
▁andauernd	-11.8186
▁border	-11.8186
▁backyard	-11.8186
▁discount	-11.8186
▁gestiegen	-11.8186
▁Schock	-11.8186
▁Sushi	-11.8186
▁rührt	-11.8186
▁Spitze	-11.8186
▁South	-11.8186
schrank	-11.8186
▁Scheibe	-11.8186
▁brake	-11.8186
▁Bird	-11.8186
▁übel	-11.8186
▁mieten	-11.8186
▁Wurde	-11.8186
▁Drück	-11.8186
▁whistle	-11.8186
▁stabbed	-11.8186
▁jogging	-11.8186
▁Entschluss	-11.8186
▁miracle	-11.8186
▁informed	-11.8186
▁visitors	-11.8187
▁spill	-11.8187
▁North	-11.8188
▁Old	-11.8188
▁Georg	-11.8188
▁euro	-11.8188
▁chest	-11.8189
▁guckt	-11.8191
▁forderte	-11.8192
▁talentiert	-11.8196
▁dreh	-11.8319
brot	-11.8336
33	-11.8533
▁remove	-11.8592
▁gentle	-11.862
▁occur	-11.8621
▁Gespenst	-11.8621
▁civil	-11.8621
▁mosquito	-11.8621
misunderstanding	-11.8621
▁Anblick	-11.8621
▁Aufnahmeprüfung	-11.8621
▁Engländer	-11.8621
▁FBI	-11.8621
▁Gebrauchtwagen	-11.8621
▁Geschmack	-11.8621
▁Gewissen	-11.8621
▁Grüß	-11.8621
▁Höhle	-11.8621
▁Karotten	-11.8621
▁Kultur	-11.8621
▁Milliarden	-11.8621
▁Pilot	-11.8621
▁Schlittschuh	-11.8621
▁Spaghetti	-11.8621
▁Studier	-11.8621
▁Säugling	-11.8621
▁Wünsch	-11.8621
▁allergisch	-11.8621
▁application	-11.8621
▁besprochen	-11.8621
▁bleibst	-11.8621
▁calculat	-11.8621
▁ceremony	-11.8621
▁collapse	-11.8621
▁declined	-11.8621
▁entfernen	-11.8621
▁erinnerst	-11.8621
▁export	-11.8621
▁flüsterte	-11.8621
▁frequent	-11.8621
▁fähig	-11.8621
▁gefolgt	-11.8621
▁kilometers	-11.8621
▁lehren	-11.8621
▁literature	-11.8621
▁massage	-11.8621
▁necklace	-11.8621
▁password	-11.8621
▁pianist	-11.8621
▁research	-11.8621
▁scissors	-11.8621
▁sleeve	-11.8621
▁unlocked	-11.8621
▁verzweifelt	-11.8621
▁volume	-11.8621
rmaßen	-11.8621
▁Ankunft	-11.8621
▁Assistent	-11.8621
▁Bibel	-11.8621
▁Höhe	-11.8621
▁Neugier	-11.8621
▁Tänzer	-11.8621
▁absence	-11.8621
▁erstaunt	-11.8621
▁garbage	-11.8621
▁helmet	-11.8621
▁nightmare	-11.8621
▁steigt	-11.8621
▁uniform	-11.8621
▁Berlin	-11.8621
▁Silber	-11.8621
▁distract	-11.8621
▁nodded	-11.8621
▁zerriss	-11.8621
▁brief	-11.8621
▁Tempel	-11.8621
▁recall	-11.8621
▁aufregend	-11.8621
▁split	-11.8621
▁Leih	-11.8621
▁command	-11.8621
▁pulse	-11.8621
▁bathtub	-11.8621
▁klingen	-11.8621
▁severe	-11.8621
▁wischte	-11.8621
▁propose	-11.8621
▁Zwing	-11.8621
▁erlebt	-11.8621
▁erwischen	-11.8621
▁examined	-11.8621
▁erhob	-11.8621
▁sake	-11.8621
▁noisy	-11.8621
▁expectations	-11.8621
▁mystery	-11.8621
▁Hauptfach	-11.8621
▁Pech	-11.8621
▁erscheinen	-11.8621
▁nachmittags	-11.8621
▁Leib	-11.8621
▁bullet	-11.8621
▁Puls	-11.8621
▁Station	-11.8622
▁terrif	-11.8622
▁Gegenteil	-11.8622
▁fake	-11.8622
▁starving	-11.8623
▁beginner	-11.8623
▁Heirat	-11.8623
▁Wange	-11.8625
limp	-11.8626
▁East	-11.8626
▁Steig	-11.8627
▁score	-11.8628
▁Wohl	-11.8628
▁Lohn	-11.863
mutter	-11.8633
▁leak	-11.8634
▁kleide	-11.8637
23	-11.8637
▁folgt	-11.877
drehen	-11.886
efore	-11.8909
10,000	-11.8926
pressed	-11.8926
▁vorhabe	-11.8934
▁besuche	-11.8958
▁extrem	-11.8963
▁wünscht	-11.8974
▁schwimme	-11.8993
▁möge	-11.8997
▁bezahle	-11.8998
year	-11.9014
zeichnete	-11.9031
▁exact	-11.9068
gefähr	-11.9072
▁Verletzung	-11.9075
▁aggressiv	-11.9075
▁verdächtig	-11.9075
confident	-11.9075
ufräumen	-11.9075
▁Alternative	-11.9075
▁Badewanne	-11.9075
▁Einbrecher	-11.9075
▁Ewigkeit	-11.9075
▁Fahrstuhl	-11.9075
▁Fußboden	-11.9075
▁Geldbeutel	-11.9075
▁Gemeinsamkeiten	-11.9075
▁Gift	-11.9075
▁Hiroshima	-11.9075
▁Kompliment	-11.9075
▁Löffel	-11.9075
▁Madrid	-11.9075
▁Passagiere	-11.9075
▁Philosoph	-11.9075
▁Respekt	-11.9075
▁Schlips	-11.9075
▁University	-11.9075
▁Verdacht	-11.9075
▁Versammlung	-11.9075
▁Verschwinde	-11.9075
▁Vorwurf	-11.9075
▁Zeilen	-11.9075
▁automobile	-11.9075
▁beabsichtigt	-11.9075
▁beruhigt	-11.9075
▁bescheiden	-11.9075
▁britische	-11.9075
▁compliment	-11.9075
▁congratulate	-11.9075
▁detective	-11.9075
▁devoted	-11.9075
▁entspannen	-11.9075
▁erschreckt	-11.9075
▁ertrunken	-11.9075
▁fantastic	-11.9075
▁gegründet	-11.9075
▁gehorchen	-11.9075
▁gestritten	-11.9075
▁helicopter	-11.9075
▁instrument	-11.9075
▁interview	-11.9075
▁oppose	-11.9075
▁oxygen	-11.9075
▁romantisch	-11.9075
▁räumte	-11.9075
▁sechzehn	-11.9075
▁serviert	-11.9075
▁slice	-11.9075
▁stattfinden	-11.9075
▁sushi	-11.9075
▁switch	-11.9075
▁tradition	-11.9075
▁turkey	-11.9075
▁universe	-11.9075
▁unlucky	-11.9075
▁verknallt	-11.9075
▁wächst	-11.9075
▁zurückkommt	-11.9075
▁carpenter	-11.9075
▁schwieg	-11.9075
▁stehst	-11.9075
zufügen	-11.9075
▁Album	-11.9075
▁Scheune	-11.9075
▁berührt	-11.9075
▁silly	-11.9075
schlägt	-11.9075
▁defeat	-11.9075
▁ladder	-11.9075
▁Schatten	-11.9075
▁verrichten	-11.9075
▁Schrank	-11.9075
▁Tafel	-11.9075
▁Angeles	-11.9075
▁schwamm	-11.9075
▁Pick	-11.9075
▁Postamt	-11.9075
▁untersucht	-11.9075
▁deaf	-11.9075
▁Korb	-11.9075
▁Santa	-11.9075
▁Böse	-11.9075
▁funeral	-11.9075
▁Latein	-11.9075
▁ausdrücken	-11.9075
▁wärmer	-11.9076
▁essay	-11.9076
sinnig	-11.9076
▁Straßenseite	-11.9076
▁compose	-11.9076
▁Fuchs	-11.9076
▁verwundet	-11.9076
▁Stich	-11.9076
▁2003	-11.9076
▁benimmt	-11.9076
▁reiten	-11.9076
▁Ausgabe	-11.9077
▁cherr	-11.9077
▁lightning	-11.9077
▁Green	-11.9077
▁dumped	-11.9078
▁Lampe	-11.9078
▁lebendig	-11.9079
fliege	-11.9079
Shirt	-11.908
gesteck	-11.908
erklär	-11.9081
Irgend	-11.9081
▁Kurs	-11.9084
markt	-11.9093
gezahlt	-11.9101
▁Seife	-11.9109
brett	-11.912
▁hau	-11.9188
▁schreib	-11.9304
programm	-11.9361
deutet	-11.9409
▁Fernseh	-11.9482
Z	-11.9488
termin	-11.9492
▁entschloss	-11.9506
▁Besser	-11.9542
stärke	-11.955
stoß	-11.9551
wörter	-11.9551
▁Fühl	-11.9551
▁gieß	-11.9551
Gesichtsausdruck	-11.9551
nuclear	-11.9551
▁Anything	-11.9551
▁Appetit	-11.9551
▁Brasilien	-11.9551
▁Bühne	-11.9551
▁Compare	-11.9551
▁Einfluss	-11.9551
▁Furcht	-11.9551
▁Grippe	-11.9551
▁Hubschrauber	-11.9551
▁Ingenieur	-11.9551
▁Kritik	-11.9551
▁Original	-11.9551
▁Prinzessin	-11.9551
▁Rezept	-11.9551
▁Switzerland	-11.9551
▁Throw	-11.9551
▁Vitamin	-11.9551
▁Zentimeter	-11.9551
▁angeklagt	-11.9551
▁ankommt	-11.9551
▁anniversary	-11.9551
▁betrogen	-11.9551
▁bloom	-11.9551
▁brennt	-11.9551
▁charming	-11.9551
▁conduct	-11.9551
▁connection	-11.9551
▁erleichtert	-11.9551
▁forehead	-11.9551
▁gewollt	-11.9551
▁handkerchief	-11.9551
▁kennenlernte	-11.9551
▁kletterte	-11.9551
▁letztlich	-11.9551
▁mailbox	-11.9551
▁milit	-11.9551
▁optimistisch	-11.9551
▁pajamas	-11.9551
▁positiv	-11.9551
▁possess	-11.9551
▁reflect	-11.9551
▁sammelt	-11.9551
▁töricht	-11.9551
▁verblüfft	-11.9551
▁verwickelt	-11.9551
▁ärgern	-11.9551
▁übergewichtig	-11.9551
alkohol	-11.9551
▁Club	-11.9551
▁Cookie	-11.9551
▁Year	-11.9551
▁ausreichend	-11.9551
▁gelacht	-11.9551
▁geschneit	-11.9551
▁lebst	-11.9551
▁parcel	-11.9551
▁swallow	-11.9551
rechnung	-11.9551
schüler	-11.9551
▁Rettung	-11.9551
▁Stiefel	-11.9551
▁bügel	-11.9551
▁widmet	-11.9551
▁gestattet	-11.9551
▁granted	-11.9551
▁Schatz	-11.9551
▁tauchte	-11.9551
▁Laufenden	-11.9551
▁Menschenmenge	-11.9551
▁dankte	-11.9551
▁crop	-11.9551
▁adapt	-11.9552
▁verkleidet	-11.9552
▁Forderung	-11.9552
▁reserved	-11.9552
stützt	-11.9552
▁purchase	-11.9552
▁gelingen	-11.9552
▁trunk	-11.9552
▁Räum	-11.9552
▁Arbeitsstelle	-11.9552
▁belügen	-11.9552
▁geplant	-11.9552
▁seventeen	-11.9552
▁Engel	-11.9552
▁Half	-11.9552
▁First	-11.9552
▁abzuschließen	-11.9552
▁imstande	-11.9552
▁Kraft	-11.9552
▁Hafen	-11.9552
▁Küss	-11.9553
▁wandte	-11.9553
▁verriet	-11.9553
Cola	-11.9554
geholt	-11.9555
▁react	-11.9558
▁cure	-11.956
gebiet	-11.9598
nähe	-11.9623
Schein	-11.9692
▁Keks	-11.992
▁Grün	-11.9948
▁schneide	-11.9972
▁schicke	-11.9972
▁erkenne	-11.9972
▁erzähle	-11.9973
▁vergesse	-11.9973
0.000	-11.9987
fällig	-11.9994
▁küsst	-12.0012
▁leih	-12.0017
setzung	-12.0031
▁blank	-12.0051
igentlich	-12.0051
▁Enkel	-12.0051
▁explode	-12.0051
empfindlich	-12.0051
geschaltet	-12.0051
▁Auftrag	-12.0051
▁Betrieb	-12.0051
▁Choos	-12.0051
▁Francisco	-12.0051
▁Gentleman	-12.0051
▁Lehrbuch	-12.0051
▁Napoleon	-12.0051
▁Rechtsanwalt	-12.0051
▁Schlacht	-12.0051
▁System	-12.0051
▁Umwelt	-12.0051
▁Universum	-12.0051
▁Untersuchung	-12.0051
▁Wahrscheinlich	-12.0051
▁Welcome	-12.0051
▁Zwiebel	-12.0051
▁abstreiten	-12.0051
▁alphabet	-12.0051
▁arriving	-12.0051
▁ausprobieren	-12.0051
▁beschämt	-12.0051
▁bewahren	-12.0051
▁convenient	-12.0051
▁custody	-12.0051
▁drowning	-12.0051
▁embassy	-12.0051
▁entwickelt	-12.0051
▁environment	-12.0051
▁erzählst	-12.0051
▁fortunate	-12.0051
▁gelangweilt	-12.0051
▁gemeldet	-12.0051
▁gemocht	-12.0051
▁geschwommen	-12.0051
▁gestochen	-12.0051
▁geträumt	-12.0051
▁grüß	-12.0051
▁hoffnungslos	-12.0051
▁kilograms	-12.0051
▁negative	-12.0051
▁physical	-12.0051
▁prohibited	-12.0051
▁published	-12.0051
▁reconsider	-12.0051
▁register	-12.0051
▁skating	-12.0051
▁sämtliche	-12.0051
▁teenager	-12.0051
▁treibt	-12.0051
▁verlässlich	-12.0051
▁veröffentlicht	-12.0051
▁violence	-12.0051
▁zahlreiche	-12.0051
▁besondere	-12.0051
▁bewunderte	-12.0051
▁invention	-12.0051
▁official	-12.0051
▁strike	-12.0051
▁surrender	-12.0051
▁Spinat	-12.0051
▁gehasst	-12.0051
▁spinach	-12.0051
▁sähe	-12.0051
▁unpack	-12.0051
▁aufwachte	-12.0051
▁Süden	-12.0051
▁branch	-12.0051
▁Check	-12.0051
▁itself	-12.0051
▁Dummes	-12.0051
▁frank	-12.0051
▁rising	-12.0051
▁relieved	-12.0051
▁battery	-12.0051
▁client	-12.0051
▁Drachen	-12.0051
▁Viertelstunde	-12.0052
scheibe	-12.0052
▁frog	-12.0052
▁versuchst	-12.0052
▁Einstein	-12.0052
▁Norden	-12.0052
▁erwies	-12.0052
▁zeitig	-12.0052
▁anlügen	-12.0052
▁übt	-12.0052
▁mask	-12.0052
ismus	-12.0052
▁herzlich	-12.0052
▁Kolleg	-12.0052
▁wertvolle	-12.0053
▁bump	-12.0053
▁Ziege	-12.0053
reißen	-12.0054
▁Tüte	-12.0055
▁Stick	-12.0056
▁Biene	-12.0062
zusammenarbeiten	-12.0064
alcoholic	-12.015
versuch	-12.0162
binden	-12.0225
nscheinend	-12.0493
▁ertrage	-12.0499
ground	-12.0514
gebaut	-12.0538
▁potato	-12.0568
▁threat	-12.0571
rgendwas	-12.0578
▁Hühner	-12.0578
▁erhält	-12.0578
▁verwirren	-12.0578
kräfte	-12.0578
vermögen	-12.0578
▁Bauernhof	-12.0578
▁Bemerkung	-12.0578
▁Briefkasten	-12.0578
▁Chemie	-12.0578
▁Franzose	-12.0578
▁Fremder	-12.0578
▁Friseur	-12.0578
▁Hamburger	-12.0578
▁Johannsen	-12.0578
▁Klausur	-12.0578
▁Möhren	-12.0578
▁Popcorn	-12.0578
▁Resultat	-12.0578
▁Scotland	-12.0578
▁Tatverdächtige	-12.0578
▁Verkäufer	-12.0578
▁Wahnsinn	-12.0578
▁ambitious	-12.0578
▁angestrengt	-12.0578
▁anticipate	-12.0578
▁appetite	-12.0578
▁appropriate	-12.0578
▁arbeitslos	-12.0578
▁arrogant	-12.0578
▁aufgegessen	-12.0578
▁aufzuräumen	-12.0578
▁auswärts	-12.0578
▁beabsichtige	-12.0578
▁befolgt	-12.0578
▁beleidigen	-12.0578
▁berühren	-12.0578
▁bestätigt	-12.0578
▁beunruhigt	-12.0578
▁bewölkt	-12.0578
▁blühen	-12.0578
▁departure	-12.0578
▁description	-12.0578
▁egoistisch	-12.0578
▁ehrgeizig	-12.0578
▁emotional	-12.0578
▁eröffnet	-12.0578
▁fröhlich	-12.0578
▁fühlst	-12.0578
▁humming	-12.0578
▁impolite	-12.0578
▁innocence	-12.0578
▁kritisiert	-12.0578
▁misstrauisch	-12.0578
▁monkey	-12.0578
▁pepper	-12.0578
▁principal	-12.0578
▁sammeln	-12.0578
▁schüttelte	-12.0578
▁slapped	-12.0578
▁slave	-12.0578
▁snoring	-12.0578
▁spaghetti	-12.0578
▁sympathisch	-12.0578
▁vergeblich	-12.0578
▁versäumt	-12.0578
▁wahnsinnig	-12.0578
▁zugestimmt	-12.0578
▁älteste	-12.0578
▁Dreißig	-12.0578
▁Felsen	-12.0578
▁Hammer	-12.0578
▁Russisch	-12.0578
▁Science	-12.0578
▁jazz	-12.0578
▁millionaire	-12.0578
▁vorenthalten	-12.0578
▁zubereitet	-12.0578
▁Süß	-12.0578
▁remote	-12.0578
▁zelten	-12.0578
▁Millionär	-12.0578
▁Rühr	-12.0578
▁absurd	-12.0578
▁flour	-12.0578
▁spoon	-12.0578
holz	-12.0578
▁Steak	-12.0578
▁region	-12.0578
▁aufsuchen	-12.0578
▁reagiert	-12.0578
▁waitress	-12.0578
▁daraus	-12.0578
wendung	-12.0578
▁consume	-12.0578
▁Platten	-12.0578
▁zuletzt	-12.0578
▁lottery	-12.0578
asically	-12.0578
▁Jahreszeit	-12.0578
▁reduce	-12.0578
▁Linie	-12.0579
▁freak	-12.0579
▁Kamel	-12.0581
bürste	-12.0581
▁Feld	-12.0581
etwegen	-12.0583
▁beliebteste	-12.0583
züge	-12.0696
▁lächelt	-12.0723
hinderte	-12.0833
▁versetz	-12.0905
▁verschieden	-12.0951
▁rauche	-12.1044
ruhen	-12.1119
größe	-12.113
schiff	-12.1132
wettbewerb	-12.1133
▁Pfeffer	-12.1133
künstler	-12.1133
trustworthy	-12.1133
▁Arabic	-12.1133
▁Batterie	-12.1133
▁Bemühungen	-12.1133
▁Britain	-12.1133
▁Charakter	-12.1133
▁Florida	-12.1133
▁Freiwillige	-12.1133
▁Glatze	-12.1133
▁Instrument	-12.1133
▁Jazz	-12.1133
▁Katastrophe	-12.1133
▁LKW	-12.1133
▁November	-12.1133
▁Okinawa	-12.1133
▁Organ	-12.1133
▁Pommes	-12.1133
▁Russland	-12.1133
▁Schottland	-12.1133
▁Spielsachen	-12.1133
▁Thailand	-12.1133
▁Vorurteile	-12.1133
▁Zustimmung	-12.1133
▁Zähl	-12.1133
▁associate	-12.1133
▁ausgelacht	-12.1133
▁beherrschen	-12.1133
▁beschrieb	-12.1133
▁blocked	-12.1133
▁challenge	-12.1133
▁dedicate	-12.1133
▁dolphin	-12.1133
▁drohte	-12.1133
▁engagement	-12.1133
▁furious	-12.1133
▁gefehlt	-12.1133
▁genießen	-12.1133
▁guarantee	-12.1133
▁gültig	-12.1133
▁hammer	-12.1133
▁harvest	-12.1133
▁kontaktieren	-12.1133
▁korrigier	-12.1133
▁lecture	-12.1133
▁memories	-12.1133
▁missverstanden	-12.1133
▁peanut	-12.1133
▁pfiff	-12.1133
▁phantastisch	-12.1133
▁postcard	-12.1133
▁pregnant	-12.1133
▁recipe	-12.1133
▁satisfactory	-12.1133
▁slippery	-12.1133
▁struggle	-12.1133
▁thumb	-12.1133
▁uncomfortable	-12.1133
▁vergiftet	-12.1133
▁volleyball	-12.1133
▁wählerisch	-12.1133
gedreht	-12.1133
ihnachtsgeschenk	-12.1133
▁Flügel	-12.1133
▁Pianist	-12.1133
▁eventuell	-12.1133
▁siebzehn	-12.1133
▁style	-12.1133
▁verlieben	-12.1133
▁Derartige	-12.1133
▁Kopfhörer	-12.1133
▁folk	-12.1133
▁spukt	-12.1133
streckte	-12.1133
▁Mitleid	-12.1133
▁butterfly	-12.1133
▁Solche	-12.1133
▁stammt	-12.1133
▁Treib	-12.1133
▁Taschentuch	-12.1133
▁sneak	-12.1133
▁Experte	-12.1133
▁Liebst	-12.1133
▁bedienen	-12.1133
▁detailliert	-12.1133
▁monster	-12.1133
▁reserviert	-12.1133
▁Konto	-12.1133
▁Lieblingslied	-12.1133
▁steak	-12.1133
▁Wüste	-12.1133
▁sorgt	-12.1134
▁crew	-12.1134
schutz	-12.1134
▁gründlich	-12.1134
▁Voll	-12.1134
▁winkte	-12.1134
▁shovel	-12.1135
▁Taube	-12.1135
▁beängstig	-12.1153
▁begegne	-12.1196
▁unterzeichnet	-12.128
chased	-12.1484
schließlich	-12.1658
▁Hokkaid	-12.1717
ewöhnlich	-12.1721
▁Korrigier	-12.1721
▁terror	-12.1721
▁unbelievabl	-12.1721
geschwindigkeit	-12.1721
kräftig	-12.1721
tgrößte	-12.1721
▁Abschied	-12.1721
▁Apfelkuchen	-12.1721
▁Arbeitssuche	-12.1721
▁Aspirin	-12.1721
▁Celsius	-12.1721
▁Delphin	-12.1721
▁Football	-12.1721
▁Formular	-12.1721
▁Fortunately	-12.1721
▁Größte	-12.1721
▁Heiratsantrag	-12.1721
▁Journalist	-12.1721
▁Kräfte	-12.1721
▁Käfig	-12.1721
▁Liebesbrief	-12.1721
▁Natürlich	-12.1721
▁Ohnmacht	-12.1721
▁Rabatt	-12.1721
▁Reservierung	-12.1721
▁Spezial	-12.1721
▁Technik	-12.1721
▁Unterhaltung	-12.1721
▁Volleyball	-12.1721
▁acknowledge	-12.1721
▁announced	-12.1721
▁ausschalten	-12.1721
▁awkward	-12.1721
▁bemüht	-12.1721
▁betreuen	-12.1721
▁beurteilen	-12.1721
▁bewaffnet	-12.1721
▁blouse	-12.1721
▁chemistry	-12.1721
▁community	-12.1721
▁curiosity	-12.1721
▁dizzy	-12.1721
▁eifrig	-12.1721
▁elbow	-12.1721
▁entspricht	-12.1721
▁expire	-12.1721
▁explodiert	-12.1721
▁gedauert	-12.1721
▁gerührt	-12.1721
▁gossip	-12.1721
▁instinct	-12.1721
▁interfere	-12.1721
▁kündigen	-12.1721
▁lobby	-12.1721
▁lügst	-12.1721
▁pessimis	-12.1721
▁pflanzt	-12.1721
▁property	-12.1721
▁regelmäßig	-12.1721
▁resources	-12.1721
▁response	-12.1721
▁sensitive	-12.1721
▁stehlen	-12.1721
▁technology	-12.1721
▁traitor	-12.1721
▁unterschiedlich	-12.1721
▁versehentlich	-12.1721
▁verstorben	-12.1721
▁vorgestern	-12.1721
▁woanders	-12.1721
sgeschenk	-12.1721
▁Angriff	-12.1721
▁Kürze	-12.1721
▁Läufer	-12.1721
▁Ocean	-12.1721
▁Ozean	-12.1721
▁appeal	-12.1721
▁download	-12.1721
▁frühzeitig	-12.1721
▁stretch	-12.1721
▁Finally	-12.1722
▁operiert	-12.1722
▁Clean	-12.1722
▁Finanz	-12.1722
▁wreck	-12.1722
▁übertreib	-12.1722
▁Zuhörer	-12.1722
▁besaß	-12.1722
▁causing	-12.1722
▁Rinder	-12.1722
▁bieten	-12.1722
▁Glocke	-12.1722
▁nutzen	-12.1722
▁social	-12.1722
▁Jagd	-12.1722
▁sanft	-12.1722
zettel	-12.1722
▁Haufen	-12.1722
▁aspirin	-12.1722
▁riechen	-12.1722
berlebende	-12.1722
biased	-12.1722
▁modest	-12.1722
geachtet	-12.1722
▁geringste	-12.1722
▁frame	-12.1722
▁fürchterlich	-12.1722
▁Hinweis	-12.1723
leistung	-12.1723
▁Hinsicht	-12.1723
▁Blind	-12.1723
▁Fleck	-12.1724
▁Judg	-12.1728
▁Güte	-12.1733
friedenstellend	-12.1733
employed	-12.1738
▁Rasier	-12.1741
▁unterbreche	-12.1873
ippen	-12.1874
▁Unterbr	-12.1952
▁Hoffen	-12.2195
▁entscheide	-12.2225
gefunden	-12.2283
Danke	-12.2283
Why	-12.2283
▁Vergess	-12.2301
verkehr	-12.2317
▁frighten	-12.2328
housand	-12.2344
schuhe	-12.2345
njoy	-12.2345
▁Kranken	-12.2346
▁Fähigkeit	-12.2346
▁incompeten	-12.2346
▁thunder	-12.2346
▁verstünde	-12.2346
energie	-12.2346
gesprungen	-12.2346
mitglieder	-12.2346
schmeißen	-12.2346
sprecher	-12.2346
▁Abschiedskuss	-12.2346
▁Arabisch	-12.2346
▁Atlantis	-12.2346
▁Beerdigung	-12.2346
▁Correct	-12.2346
▁December	-12.2346
▁Diebstahl	-12.2346
▁Egypt	-12.2346
▁Erfindung	-12.2346
▁Gehaltserhöhung	-12.2346
▁Geldbörse	-12.2346
▁Geschichts	-12.2346
▁Geschwindigkeit	-12.2346
▁Großeltern	-12.2346
▁Kapitel	-12.2346
▁Klamotten	-12.2346
▁Persönlichkeit	-12.2346
▁Rekord	-12.2346
▁Schraube	-12.2346
▁Selbstvertrauen	-12.2346
▁Sonnenuntergang	-12.2346
▁Stäbchen	-12.2346
▁Swimming	-12.2346
▁Taschenlampe	-12.2346
▁Therapie	-12.2346
▁Verräter	-12.2346
▁Verschwende	-12.2346
▁Website	-12.2346
▁Zusammenhang	-12.2346
▁ansteckend	-12.2346
▁approval	-12.2346
▁astronaut	-12.2346
▁benefit	-12.2346
▁bietet	-12.2346
▁blocks	-12.2346
▁candidate	-12.2346
▁cellphone	-12.2346
▁chopsticks	-12.2346
▁contagious	-12.2346
▁endgültig	-12.2346
▁established	-12.2346
▁exaggerate	-12.2346
▁flashlight	-12.2346
▁fotografiert	-12.2346
▁gedenkst	-12.2346
▁gefüttert	-12.2346
▁gewachsen	-12.2346
▁global	-12.2346
▁gorgeous	-12.2346
▁herauszufinden	-12.2346
▁honeymoon	-12.2346
▁injury	-12.2346
▁montags	-12.2346
▁neidisch	-12.2346
▁orphan	-12.2346
▁parallel	-12.2346
▁pfeifen	-12.2346
▁prejudice	-12.2346
▁quote	-12.2346
▁religiös	-12.2346
▁schnappte	-12.2346
▁schwanger	-12.2346
▁smooth	-12.2346
▁supply	-12.2346
▁surprising	-12.2346
▁temporary	-12.2346
▁trousers	-12.2346
▁verdorben	-12.2346
▁victory	-12.2346
▁violent	-12.2346
▁worries	-12.2346
▁zugehört	-12.2346
fängst	-12.2346
▁Affen	-12.2346
▁Bezahlung	-12.2346
▁Einwände	-12.2346
▁Hütte	-12.2346
▁Knochen	-12.2346
▁Mission	-12.2346
▁Nägel	-12.2346
▁astonish	-12.2346
▁charity	-12.2346
▁deposit	-12.2346
▁extinguish	-12.2346
▁gelaunt	-12.2346
▁grapes	-12.2346
▁hometown	-12.2346
▁indoors	-12.2346
▁represent	-12.2346
▁therapy	-12.2346
▁zerbrach	-12.2346
publik	-12.2347
▁Fotografie	-12.2347
▁Taxifahrer	-12.2347
▁criticism	-12.2347
▁langweilen	-12.2347
▁verbunden	-12.2347
▁Flagge	-12.2347
▁Redner	-12.2347
▁Vorbereitung	-12.2347
▁joy	-12.2347
▁salesman	-12.2347
▁Mäuse	-12.2347
▁blicken	-12.2347
▁ladies	-12.2347
▁porch	-12.2347
▁Küste	-12.2347
▁Trick	-12.2347
▁bedauere	-12.2347
▁daneben	-12.2347
ordnung	-12.2347
geschäft	-12.2347
▁Erziehung	-12.2347
▁Partei	-12.2347
uadrat	-12.2347
▁Narbe	-12.2347
▁anständige	-12.2348
hilfe	-12.2364
▁Fahne	-12.2489
liegende	-12.2551
nybody	-12.2927
▁zurückkomme	-12.2934
siehst	-12.295
fünf	-12.295
Warum	-12.295
▁Versprech	-12.2968
▁guilt	-12.3003
▁Kredit	-12.3013
pflanze	-12.3013
▁Optimis	-12.3013
▁Verlobung	-12.3013
kompetent	-12.3013
verbindung	-12.3013
vertrauenswürdig	-12.3013
wiegend	-12.3013
▁Abkürzung	-12.3013
▁Anstrengung	-12.3013
▁Atlantic	-12.3013
▁CIA	-12.3013
▁Dezember	-12.3013
▁Empfehlung	-12.3013
▁Ersparnisse	-12.3013
▁Feuerwehrmann	-12.3013
▁Flammen	-12.3013
▁Heimatstadt	-12.3013
▁Heimweh	-12.3013
▁Innenstadt	-12.3013
▁Kandidat	-12.3013
▁Korrektur	-12.3013
▁Krähe	-12.3013
▁Middle	-12.3013
▁Physik	-12.3013
▁Rabbi	-12.3013
▁Schlafanzug	-12.3013
▁Sonnenaufgang	-12.3013
▁Truthahn	-12.3013
▁Unterschätze	-12.3013
▁Wednesday	-12.3013
▁abwarten	-12.3013
▁apparent	-12.3013
▁applauded	-12.3013
▁attitude	-12.3013
▁attribute	-12.3013
▁ausprobiert	-12.3013
▁barefoot	-12.3013
▁communication	-12.3013
▁compromise	-12.3013
▁delicate	-12.3013
▁elektrische	-12.3013
▁erhöht	-12.3013
▁flexible	-12.3013
▁gambling	-12.3013
▁gedemütigt	-12.3013
▁gekümmert	-12.3013
▁gelegentlich	-12.3013
▁geputzt	-12.3013
▁geschummelt	-12.3013
▁gestimmt	-12.3013
▁grandparents	-12.3013
▁homesick	-12.3013
▁humiliated	-12.3013
▁incorrect	-12.3013
▁increasing	-12.3013
▁körperlich	-12.3013
▁leugnen	-12.3013
▁löschte	-12.3013
▁motivated	-12.3013
▁nervt	-12.3013
▁outdoors	-12.3013
▁practicing	-12.3013
▁promoted	-12.3013
▁promotion	-12.3013
▁religious	-12.3013
▁respektvoll	-12.3013
▁satisfy	-12.3013
▁scheitern	-12.3013
▁sechzig	-12.3013
▁section	-12.3013
▁spannend	-12.3013
▁telefonisch	-12.3013
▁thorough	-12.3013
▁trigger	-12.3013
▁typewriter	-12.3013
▁typisch	-12.3013
▁unverheiratet	-12.3013
▁unzufrieden	-12.3013
▁urteilen	-12.3013
▁vacant	-12.3013
▁verfügbar	-12.3013
▁verschlechtert	-12.3013
▁verschüttet	-12.3013
▁verständigen	-12.3013
▁wöchentlich	-12.3013
▁yawn	-12.3013
▁überfüllt	-12.3013
schlepp	-12.3013
▁Bluse	-12.3013
▁Ebenda	-12.3013
▁Metall	-12.3013
▁Minister	-12.3013
▁Parkbank	-12.3013
▁Pfeil	-12.3013
▁Sozial	-12.3013
▁Stamm	-12.3013
▁Veranda	-12.3013
▁barfuß	-12.3013
▁envy	-12.3013
▁horizon	-12.3013
▁verfehlt	-12.3013
▁Partner	-12.3013
▁Region	-12.3013
▁kochst	-12.3013
▁multi	-12.3013
▁reservieren	-12.3013
▁shiver	-12.3013
▁conceal	-12.3013
▁skepti	-12.3013
▁gestrige	-12.3013
▁leistet	-12.3013
▁trace	-12.3013
▁spürte	-12.3013
rekord	-12.3013
▁Forschung	-12.3013
▁friedlich	-12.3013
spiegel	-12.3014
▁Falsche	-12.3014
▁float	-12.3014
vorrät	-12.3014
▁verklag	-12.3014
▁Pilz	-12.3015
▁Fährs	-12.3015
rubbed	-12.3017
Schussverletzung	-12.3026
intoleran	-12.3051
wärmt	-12.3542
▁dürfe	-12.3649
Spieler	-12.3664
geboren	-12.3664
▁disappear	-12.3709
▁necessar	-12.3717
nachmittag	-12.3727
▁slip	-12.3727
angebot	-12.3727
▁Terrorist	-12.3727
▁Verhandlung	-12.3727
bevölkerung	-12.3727
entzündung	-12.3727
nährt	-12.3727
▁Astronaut	-12.3727
▁Diplomat	-12.3727
▁Donnerstag	-12.3727
▁Entdeckung	-12.3727
▁Entwicklung	-12.3727
▁Kontaktlinse	-12.3727
▁Pralinen	-12.3727
▁Spitzname	-12.3727
▁Verständnis	-12.3727
▁Veränderung	-12.3727
▁beherrscht	-12.3727
▁bewahrt	-12.3727
▁brilliant	-12.3727
▁defense	-12.3727
▁dreckig	-12.3727
▁errötete	-12.3727
▁komplett	-12.3727
▁potential	-12.3727
▁respektiert	-12.3727
▁unnötig	-12.3727
▁verhungert	-12.3727
▁verspür	-12.3727
▁vivid	-12.3727
gefordert	-12.3727
gefüllt	-12.3727
nteressierst	-12.3727
ritannien	-12.3727
sprachige	-12.3727
undvierzig	-12.3727
zukaufen	-12.3727
▁Afghanistan	-12.3727
▁Anlass	-12.3727
▁Beethoven	-12.3727
▁Behandlung	-12.3727
▁Dachboden	-12.3727
▁Erfüllung	-12.3727
▁Food	-12.3727
▁Griechenland	-12.3727
▁Herzinfarkt	-12.3727
▁Janeiro	-12.3727
▁Jäger	-12.3727
▁Komitee	-12.3727
▁Mikroskop	-12.3727
▁Pfanne	-12.3727
▁Polizeibeamte	-12.3727
▁Sapporo	-12.3727
▁Schnurrbart	-12.3727
▁Selbstgespräche	-12.3727
▁Sommerurlaub	-12.3727
▁Thursday	-12.3727
▁Titanic	-12.3727
▁Toyota	-12.3727
▁Trottel	-12.3727
▁Träg	-12.3727
▁Tätowierung	-12.3727
▁Ungewöhnliches	-12.3727
▁Verbrecher	-12.3727
▁Vorschläge	-12.3727
▁ausgebrochen	-12.3727
▁ausgeliehen	-12.3727
▁ausgenutzt	-12.3727
▁belästigen	-12.3727
▁calendar	-12.3727
▁colleague	-12.3727
▁contradict	-12.3727
▁creative	-12.3727
▁destination	-12.3727
q	-14.5378
„	-14.5467
